memory_initialization_radix=16;
memory_initialization_vector=bf772c70,bf37a6c6,bed266c1,bf67f4a4,3f07d76e,3d9e6f9b,3f72e10c,bf3db6c0,3e3c760e,3f6be4ec,bf5789bf,3ea7120a,3efe1123,bf58fe94,beb908b4,3e65fedf,bf7490f4,bf73f869,bf0cb8b7,bf37f155,be72efd6,bea48b4d,bf603113,becc814d,3e423029,bcd042b3,3eb0f2e7,be04965f,bf37c7eb,3ed81c05,bf17199d,be3fd897,3c97da74,be460b1a,bd1f6caf,bf49bab4,3d196cb7,3f12910a,3e8c54ce,3f0c8f01,bf4c3e49,3e24a24f,3e19dee6,3ebbfe40,3ea0b230,be896711,3f15061a,bdacce7c,3f79858c,3f6d8194,3ee18419,bf4c558a,bf228896,bebe3bca,3f2bdc16,bf554fc3,3f31a341,bf0d3ba3,be357a6a,bf3ec70f,3f3cd30e,3ec43b21,bf18b25d,bf216058,3e72fe31,3efd7267,3d6097dd,bdfc83c5,3d025e8c,bf8109f9,bf1cbad9,bf089f81,3ed808b1,bf7ea75d,bea070b6,be98dbb9,bf1cc0ea,bec7bb2c,3f6c195c,bf42da88,3f31ed50,3f026669,3f1be09f,3f18cc6a,3f4fdee4,3f58b2de,bf28bacd,bd020e31,3e080eda,3e185679,3f39d886,be87bbf1,be94b0d0,beb5547e,bee72ee0,3f0415ba,3e3364c1,3ec54984,3f093766,3e657b5a,bf7469b4,bf0fc7e8,bf05fa43,bd251f68,3ea452b2,bdf6b933,bed599ef,befff904,bf7abef3,bcda88d1,3f3e113f,bd7296d7,bf409f2f,3e8ab6cc,3f4235a5,3f7e5c7f,3eff021c,3f3244f4,3e415e00,bf162880,bf00c68d,bf1e355c,be37a454,3dbecfed,bf549677,3f46f254,befe71f5,bee301ab,3f3332c2,bd998df3,bbd68368,bef39662,3f14c45c,beb40621,bee8dbbf,beb5f85f,be30523c,3f109f11,becfcd45,bf60c1b8,3f1fa865,bd735f11,bdb2cca2,3f019dd7,bf628342,3f7daf58,3f6d7890,3f51a89c,3f2d84a2,3df7cb2c,3f0cc1b0,3f24264e,3e1c64c8,3f5a1b06,bc0db003,3f9716ba,bee3345b,bda87cfe,be210a3d,3d74a0e2,bf1692ef,bd208216,be379183,3edfd82e,3f42084a,bf0c14bf,3f02e866,3e836a10,bf087e21,beca1a9b,3d736298,3e8010e1,3ee5a411,3f1e4850,bf17f853,bf299350,3e3fc4ed,3f182fed,bf4da8d0,bf74cc39,bf1e4627,bf55c7f5,3e908278,bf4ba35f,be60f751,3ea7a758,be952431,be9e6976,be6ca3e2,bf0168b6,3f135d23,3d67a1f0,bf581263,3f3bf345,3f4d2520,bf16f617,3f7aff03,bd935546,3df6c429,bf03e061,beb467e9,3d58dfdc,bde3a03f,be8f72e2,bf1d07c6,bfa5a1db,bf6a5ac0,be706a08,bdd6074c,bf8967b5,bf1500fa,3d0b5f30,3e877f17,3e1744f5,3daa309e,be7360fa,bdf2b671,bf45290d,3e8d6fc7,bd5d1f51,be89b3b8,3f0bfe6d,bdc29df8,3f7adda3,beb0e0c1,beb519bb,bf518def,bf55fb8a,bd003080,be349baa,bf486e71,bf943afc,bf5c3936,bf0b6c00,bea9a80e,beba8a9d,3d5e48ed,bcec3800,beb5f82b,befe3b4d,bd7d5fac,be726393,beec1ef0,be22b77c,be8a0ef5,be97b369,bf882626,bf95d664,3eaee3b0,bda0939e,bf699d72,3f704730,3f6cdc4d,3e5f49d9,3f4751b9,bdb79d60,bee57bc1,3efd1e41,3e837407,bf3289e5,3f016b33,bf2dcbb0,3e322341,bf5d9315,3ee553ef,3ea48ffe,3e3e8607,3ef2ba8d,bf08dbbd,3ecaa3b5,3d9256e3,bea75546,beed53d6,bf9a65f5,3e78594b,bea48b6c,bfc09eb2,be4815cf,3f12a8a6,3f04fabf,bf70a423,bf21a77c,3f67472f,3f23013c,bf920f1c,bf02ec5d,bf83f298,bfae082c,bf49065b,3efd62a3,beca3471,bd8c9a1c,be11e329,3e5cf9a7,bea257d8,3ea6f27c,bce9b181,bdd6957e,3d83a685,bdeac506,bf61bdfa,bdaeadc0,bfd3d2b1,bfdec661,be83af31,bf666a89,3efbc59b,bf7a3360,3f5b97df,3e5fdb8c,beec472b,3f05dfbc,be5d06a7,3ec2a1f6,bf56f79b,bc900656,3f782d0d,3f67b22c,3f936861,3e9f1564,bec51f90,3ed40f59,be9a310f,3f8a9c76,3efe310d,3ddc7f70,3eec1c64,bf228207,3e1b70a8,bf282e84,bec14a30,3d29508d,3d4930db,3d55bc30,bdda740b,3e64a1fc,bee7face,bd8a4f9c,3e98ffbb,3d9a57c2,bf7d0885,be2e0c20,bf40160b,be145694,bdc246bd,3e55a6a0,3e8e5386,3d414fc5,3e0b3fb2,bed88333,3f565483,3e4968c4,3f031bbe,3f8a4990,3f99dcef,bf031828,3e9c7eff,bf9eb33b,3f0a5c4e,3ea21ec9,bf5e0bc0,bea18dec,bf6ad6a3,bdfa3fd5,3ef2a52c,3b4c535a,3f2fae42,3f097a4d,bf0ae8db,bf8c3b61,bf535fb4,bf40a60f,bd84c128,3f947ac4,3f650335,3f14e297,3ebf659e,be7b3ff4,3f8ca3a3,3fc168e2,3ec9fc65,3f84570e,3f1ece71,3f34803c,bf1a4d78,beb54618,bf0fa755,3e8120b3,3f24872b,bedd5a90,bf0438e8,3e29b489,3eaa1abd,3e611100,bf00bd8a,3f6bdbb4,bcb55a82,be80a8e9,beeae8f8,bdd4a829,3ea5d55d,bf04405c,bf5ef5b4,be2a1aca,be79931a,3fb617ac,3f4e84ca,3f1cccb7,3f8f2231,3f5f3181,3f78eefe,bef204b8,bf409704,bfa59c21,be798e32,bf912ac7,bdca0828,3f260abf,3bdda3d8,bf069356,3f4fdf3e,3da28fa5,3e4205e5,3f2b5782,3f2e8270,3dd72d1a,be903fb0,bee14cc0,3f8b3fed,be69872e,bde3462c,bdd98472,3e8c0dbf,3dd8ca5b,3e38ebd9,3f1dad6a,3e1e86d4,3f7d9da4,bf6f76da,bfbe88d9,bf71d600,bf952d6b,bf3464c3,3e451e22,3eefec12,be40f9e3,3da2b2f9,3ef5ac2d,bf79ec20,be1bd08a,bf47ee0c,bbe5cb31,3ed4b2e0,3d4243cc,bf8baf77,3f1e143c,beb4f1c1,3f0adad9,bf094b04,3f3b164b,3f0646a0,bee5429a,3f1d38f2,3e3e09b1,3e2d7d2d,bce5cb2d,3c2eebb9,bff1a2bd,bf9bc445,bf81835f,3eebda69,bf0b5eba,bf29b5d2,3f7711ed,bf5b964f,bf3ee072,be909c03,3ee34337,3f666926,bedb8e40,bd83037f,3eed7d2c,be087c14,be10b248,bf30378a,bf17a933,3e5b7846,bddf6f83,be21e3ca,3e97884f,3e387d28,3e3b3a76,beff3063,bf871e42,bfe4abbf,bf77f16c,bfe1188b,bf8a202b,bf9cadf0,bf3a6817,beb913b9,3f71139b,bf2bd10d,3f4f93dc,bee84526,3ee1d2f4,bf197622,bf7f1e5c,3f3cf135,be58ad79,bf852180,bf14c502,bf2a4923,bef499eb,be492921,3e4f3bd5,3f02857a,3ddb6a38,3e8aa8cf,bdd018d2,bebb4c42,bf9f7d88,bf81eb2b,befc12b3,bafa1ddf,3e613494,3e5e2c29,be47d418,3eddf640,becb6f4b,3f1a5f3d,3f70003a,3f24c48a,3d901098,3f37f83f,3e9bd927,3e9f34b7,bee924a4,bf091f0d,be04dac7,3e1113bb,bf6221b4,bdf41f86,bf6c2a0a,bfc3e5e8,bf70bf2f,3f420ab5,3ebf488f,bc9b484e,bf5eb073,bf7352c3,bf0b2adf,3f19cea8,3c93e03d,be43e43f,3f3ed28a,bf0d7808,3db3adb6,3e89cd47,3ecfa154,3ec80bd4,3e6934ee,3d80f3c7,be2cf22a,bf3bffd4,bfa0227d,be55eedf,bf88b5cb,bf79f005,bf0c40a8,3e29b059,3ee57b75,3f055cb9,bea742f8,bf0ecb6a,3f033a3f,bcfbc712,3f5a7cd2,3c3e0222,bd96b896,3f8402c7,3f126b9a,bf18bc8f,3f81f564,be7e5d23,3f067345,bee565ea,bf26a77d,be0e1d8a,bdb4298c,bf04d4fc,3f26e12f,bf68c75b,3f036fe1,bf3d897c,bf876b62,3f4dcc5d,3e957e74,bf0ae9a7,bf6d8b4e,3da8426a,3ecb34a9,be1c6db2,3e731d1a,3edd707a,bd8f98c7,3f10871b,3f9dc2e7,bf11181d,3cb73b7a,bec52d03,3ea6a6ed,bd4b0072,3f475b0b,bf7bb9fc,3bb483ad,3f321ba7,3f7cea52,bdad05e0,3ebb722a,3be80a7a,3e8442a1,bed248b1,3e9d15e7,becf16c0,3f23f2dc,bf5cce78,bea1ce7d,be93e9f4,bf03cf65,bf664ca0,bf57ccb1,beaf07a8,3f95b5b5,3fa21468,3f54cd62,3df1ec04,3f40cefe,3e811551,be895d90,3f0513fb,bf6b0861,bec01387,3ee33725,bf574e3e,3f6a5d91,bf0dbe8f,bdc3014a,bf0d3bf9,bf0bd480,bf8e70a6,3d2db958,bf05a7d4,be750e70,3e6b400b,bf164aa9,bf116d77,bf202664,bf87d0dc,3d593920,3e2d8d0b,39a8de2e,bdfc6deb,3f0d3d09,bf533d90,be5ce944,be180e3e,bef774a9,be46d02e,bf060cda,bf7d5703,bf45bcf3,3e42d4a8,3f2994cd,be8e8c1b,bea20a1e,bece3ee3,bf5658fa,bf819e20,bec6c9a5,bf7a4b42,3e6bb8a5,3b15f035,bf2f9ef2,bf5ccbe9,3e905e93,3dbb8270,beebca0f,bf86fec7,bf42d287,3f805628,3ca68414,3d81073b,bf005360,bf1fc20a,3f7b4832,bf066676,bea2c867,3f05ca5f,becfa838,be36d486,3e96190e,be9da6f0,3f6a2557,be637d58,be09fca9,3f36b517,3eed7fc7,bf8a8f96,3e819fc7,bf6bba70,bf163127,bf677825,bf41246c,bebd79c8,bf22a674,bc72d9ba,bf42df0c,bf23720d,be91d850,3f13dcf3,3eaaade9,3f3195a7,bd4b4ee4,3f256bcd,be1ea6b9,bf787e76,3f4b1ada,bef5e72a,3ec333d1,3f2cb60a,3e633c5c,3e80bcfc,3f5e0007,beb7a339,be0e1625,3f616cb9,bf4175b3,bee58935,bdae5486,bf1673e1,3ee97728,bf3a7e4d,3f0a09eb,3efe1e20,bf19ec3e,3e494412,bf7a7135,bed2019b,bece0d46,bf689163,3f162ebc,3eb97e77,bef20cf3,3dd6bdad,3dd7b216,3edf3f41,3f66943b,3e8e56da,3e3da509,3f44e026,bf531e6f,3f0c926b,bf47f6f2,bf05e84b,3f5599bc,bf6042c4,3eaf580d,bbc13aad,beef456c,bf0cfd93,3f26dce4,3ef2a3d6,3f344f45,3ed1c0e5,3f0a36b1,3f580373,bdaa93b7,3f79a8c8,bf3ba192,3dbd87d3,be808679,3f095c4f,3f2cd3c6,bf430ac3,3e8c275c,bdcf171c,3f2248ea,3f12ace3,bd9e64f9,3d7129bc,bf736040,be31ae5e,3e6d154f,bf65eebe,3f39d0af,bf22aeb8,3f6a0d91,bec7efd7,beb46681,3f0bfd21,befd14de,bead0482,bf4b6d66,bf658350,3ed550bc,bf30bccd,bea28f80,bf1fddcc,bef50525,3f4d0edb,bd956806,3e04dec1,3ef4d545,3ee3da6b,3f15675d,3e29ca6f,3cb57da5,be9cb188,beb03516,befc5611,3edd6627,bf2f0ae1,3f613e55,bf03cc75,3f30d344,bf1b6357,3f25c7ad,bf798dc6,bf6093d1,3e3bf5fd,3f30fb46,3e5f5a96,bdbd02bc,3f6bde4e,3e88bf98,3f455cd8,3f7a5f1a,3f0cc7a1,3d416855,bf00c2e9,3ece699e,bf738ef0,3f71e07f,bed83051,bcd58eb3,3e714a64,bf34c456,3f2729b8,bf13e6a3,bf36ddaf,bf5998db,bf36d536,bf36e04e,3f409447,bf5326c2,3f155d0d,bebc06b1,be923466,3f2ea066,3f7120c1,bf0c7965,3f2ba146,3f0e58db,bf6a7b04,bf3f3efa,bf679f5a,bd18b145,be94c744,bf2eaeec,be95e597,bd83157f,3f44aa0d,be5cb91c,bf2bb8dc,3f3da8b5,3f55db51,3eb5b48a,beaf80e1,3e17ea93,3f210075,3f5394c2,3ec0a41c,3e720bd4,becaa2ea,be73e9ad,3f5509fd,bf0b3b11,3f1189a4,bdec4853,bf503b72,3f433181,bdfd3acc,3f0610e1,bf44f469,bdb080d6,bf2932c9,bf60ede2,3f5d640c,3eb0fa05,3f58226d,3e29fc3a,3f48412b,bf5d30a3,3e83d39e,bf278aff,3e20c4b3,bf240c41,3d6bf15c,be85f1f2,3f2da57d,3f3f1589,3f3bb055,bc5dd1a9,3ee7c90a,3f4cd0ad,bdef1d33,bd91c3ed,be218a64,3f377e70,3f324d0e,3f4ec8e4,3ebee3d2,bf46ac20,3f6541b4,3f334afa,3eec2048,be8f479e,bee27869,3f307e48,be98e625,3f50c942,beda700c,3ea90ea3,bf447f75,bdec8701,bf56f408,3e9e83f4,bdc527f8,bf4abe28,bf16913c,bf565d07,3efba4e8,bf9dc373,bd8d59b1,bf3d57af,3f17b4e3,3ec42897,bf091008,bf62912b,3e45bd5a,bed4fa24,3e524d59,3f148e91,bf5a7d85,3ec95c08,3f2abe87,bf3a2f80,be962a65,3e43c434,3ebea96b,3f45dafc,3f149896,beaaf077,3dc9fe4e,3f6b2ba3,3e3a943e,3e702f98,3f1b83b5,3e4810db,befe16b0,3ceccde6,bebf0b73,bcf08a61,3e814976,befe12e2,bf415e29,3f4eeb4a,bf1f394b,3e80a61b,bea130bc,bed08850,bf3d9962,3ee910aa,bf2c409d,3d489d59,bf310d26,3f49f4b4,3f2197fc,3e93815a,3f71e41b,be91a1ac,3ea2269c,3e93ffc0,be3d360e,bf419c67,be84c713,bf0e9364,bec65dd3,3ec30904,3f2e0b71,bfa11bcd,3eac2983,3d29e757,be75d35c,bf5ba03b,bf4580f6,3ee3c243,bf362c82,3f01bc48,3ef4084c,bf38eb3a,3e469f65,3f591bb3,bef8da56,3e70be93,bec6b1b8,beae148d,bdf2ecd2,3f46ab4c,bea8b80f,bf6c03c6,3eaa5a40,3f0b9a9c,be9a632f,3f1b9870,be996f92,3ec41a38,bca90ff0,bf3a9701,3eba2993,bf3af753,bf8a833e,bf1c7832,3f3e838f,3f5aae99,bf77ee82,3f74b934,3f185360,3f8fbbca,3f45c45d,3e2841f8,3f542b34,bf6526e6,3c8d25c6,be492a82,3f365f8c,3e122d79,3f2c50e5,be979e8a,bc9fb884,3f381514,3cbc3d2b,3f642f53,3e2684d1,3f65ba79,bc89b04a,bdc981ce,bf6034ad,3eaee9c1,3f104edd,bf61f2f4,3f2e4bf5,3e32b159,3f4c92af,3f72b596,3f0764bc,3ef2d871,be018ca1,3f853ba6,3f32dd7c,3ec6924a,be18a32c,bc86a5d7,bf4efe1c,3f165305,bf5af9ed,3f4b7727,3fbe5c36,3e5cd592,3f15542a,3ebb5636,3f9ea1cf,3e39ca08,beb788c5,befb1a2b,3f090e62,bf3dcd3e,bf197d9f,becbabf7,3ef57f81,bf348459,bee1a9d3,3ee32a95,bea4520c,3f06288b,be2e57f4,bea2e2df,3f0a3fec,be6648a4,3d5cdbd9,bf404351,bf7c054d,3e51c8bd,bab40583,bdd6b621,3fb8e83f,3fcaab71,3f36e5a0,bdd7a345,bdc0a800,be6587d0,3f1a4833,bf802d1b,bf7040ee,bf12a347,bf25f1a5,bf846473,bf34505e,bf2306cf,bebf40bb,3ea985a6,bf43b0fb,3f08407a,bf60e08e,bf723ccb,bf8d71e6,bf1d8fb7,3bfceaf3,bd9f3b64,bf5059d3,bec7d7b4,3f7ceaf6,befa55d5,3fc17d43,3e2c2a67,3eee720e,3f3716ee,be806648,bf44d6b2,be448687,3e8d5401,3d3b3c31,bf6d058f,be8bd821,3ed798fc,3d7ebae7,bf47e7dc,3f717696,bf4a8f27,bb6cf19e,be7a47a6,3f081534,3f17c42b,bf8ebf5a,beb9505c,bfb16f28,3e1d3373,bfaa4cf2,bfaddda7,3efc24f9,3f41507c,3e2f0900,3f93101c,3faeb1b7,bdd1fc3d,3e6725a2,3eaa602e,be853613,bed003c4,bf1d13bc,3efa7480,be1f76dc,bf334b88,3f4914c4,bf771edf,3de11393,3f1ce792,3df15ab9,3ecb1a41,3f4886dc,3df0f34b,bf4a3679,bf8d57bf,bed4b324,bf8c47b4,3e21a34c,bddae20c,be9d2b63,3d39e4cd,3f79f624,3d7d1177,3f4faccd,3dff45ba,bf90d06e,3ea1443d,3e2be301,3f201ce2,3f371996,bf32a39d,3dfdcd80,3ef0734c,bd116fa5,3ec28f0c,3ea11171,3f535339,be2fd46e,3f4b3821,3f1384ed,bf360865,3dcfdeaa,bf31349b,bedac7ed,bf5307e7,bf38aa17,bf630aa0,bed01499,3eea16bc,3f45f48a,3f72baea,be8328ac,3e893b3c,3f3344f4,3ea061dc,be4ebaff,bf01741a,bf34f944,3f58ee97,bea8b84c,3f0d8b83,bc812606,bf2e6ada,3e21f1d4,bec2579a,beed6963,bf663041,3f15e48b,bf5d0591,bf94e1b3,bfb0cee2,bf0f1ff7,bf84b533,bf49422a,bfa62265,3ed33ccb,3e399ca1,3f2e6162,3e0e1654,be30779f,be8f3585,3eff7f55,be50085d,bf2acc9e,be76c517,3f49eb35,bf0d552c,be6515e3,3db43e71,3f634118,3e8d8abc,bf000306,3f387c33,be295596,beece7f0,bed1e99a,bf3de345,bfa6e9e6,bf298a46,bf3537b1,be5ea3c2,bf2800ee,bf297eb5,3d989716,bd9c0a18,3f056493,3f11b1d0,befb1dd7,3f02c0a9,bf3da067,3f302356,bc740c58,3d2a7543,3e95aeec,bf074ecc,bf5e4937,3f0be349,bf278ed3,3e4073a9,bd0d45a3,3f45a741,3f1a4022,3f678a3a,be4a3b80,3ed8d676,bdae4508,be44a635,bef42bc5,bef9230e,bed3e054,bf5d7cfe,be02e5b6,bf4c31e8,be296e7d,bf96681a,3f096f01,bf32fd85,ba21da16,be35747a,bdbe2b49,bd72d570,3ed7d504,beb18143,3ecb2e57,3f627da4,bdc95bc6,bf79dd41,3f06688a,bd3562ba,3f5f25ec,3f855bdc,bd70442e,3f277f8a,3b4da9ae,bf3ff86d,bf79fe7a,bf523585,bed7c2dd,bf3327a1,be7a3857,3f1f6dd9,bf06ccab,bebf6fbc,bea4ed1f,3e7aab16,be4f3238,3d6f312e,3d77d915,bec2b210,3e00aca1,bf071d6b,bf4c362a,3f67995a,3e145eaa,3e5ce7a9,bee1f3d2,3e49ba6f,bf5558d0,3f03910b,3f8018f3,bd9d2044,bf488747,3f127379,3f61d433,bf5d6735,3e8ee2ab,bf929b0c,3f25e108,bb328a5b,bf9371d6,bf3681e8,bef47a8e,bf894a5d,bf555442,3e019605,bde4ebe2,bee955f7,bee5c18d,bf962c0d,3d951da6,be89d0bc,3f067083,bf0dde58,bba8aaab,3f53058a,3f23fcb1,bf56e0a8,be671890,bee1172d,3f17fd23,3ebae6c8,bf35478c,beff65e8,bf2856ff,3f0b1ba5,bf185fc2,bf4af4b4,bf68c541,bf49aab8,3ead3c2e,3b465f2d,bf2510f6,bf4f7e51,3d87e16b,3e55c10d,3edea7d3,3e303c2b,3bbdf897,be2f92dd,bd33daec,3c84c64a,3f298955,bf09986f,3edc5d96,bcfe4f23,bf1b97c2,3f271663,3e5bd95f,3f3c1415,3f62435e,bd9e2050,bf3bd065,3ea2f8ed,bdc7ed34,bd961210,bf867ed0,bec44f6e,3e2b9530,bf1c3951,3f5d68e7,3dc39913,bf3964f5,3e0003ba,3ec43839,3edf46bf,be45cf35,3f0d8857,bf341966,bf491aa5,bf3a5dbe,3ed4c806,3f666aa3,3f3e26a5,3f8a8b0a,bf21cf88,3f0ddca6,3f1ac108,bed78d28,be9fb497,bf62423e,bfa9c633,beb30110,3e99d6f7,3f144eb3,beb97083,3f240f51,3e840e85,be223af9,bc9fdc3b,becae4bf,be17dae6,bf72fdd8,3effbb22,3ea1fa94,3f65046e,bdb237a7,3e775965,bf7d3509,bf7d63af,3d9fb2bd,bf64e85c,3e1d3a4d,3f62ced8,3ec3969b,be747bfa,3f62f605,bf6d8a68,3eb18721,bc1e282a,bf118ed5,3d22b654,3e95d57c,3f942206,befb71ae,3f36dc26,bf66a36a,3e18ed2c,3f0fc3d3,bf6250ca,3d4fc3d1,3ed27d78,bf4350e1,bf39bb8b,be96f7a0,bee84345,bf74edfc,3f4c0dc8,3f291963,bf6136fc,3dcdf5e9,bf0e034b,3f2ec515,3cc3be0f,bf0b8ad1,3f5e00f7,bf3a25e2,bef6b176,3eea794c,bf3f06eb,bf071033,bdeec634,3f3d684c,3f8266c0,3f8aa4e3,bebdd585,bf30ffec,bef3a9f0,3e6532c8,3ea9e51d,3f146413,bf5917d1,be5c0151,3d514aa3,3dd58581,be23ee72,bf080eba,3f6cea54,3e72d77e,bf311dd6,3da428b3,be821442,3e270f84,bf76173a,3e73136a,be6b8a0b,be8bad89,3eb425d4,be511097,3e23d54f,bdf9a339,3e9b26e0,3c121f66,bf3085b6,bf36af73,bf49e4ff,3c8ee95a,beb4cdb6,be8dd1de,3e27a010,be0aab00,3edfa430,be448f39,3f0e8088,3f32b93b,3cec7fb6,3f6d1b14,3c2dad66,3f246cf4,bf3f691d,3f65c8a0,beeb77d4,bf19783b,3e77a43f,bf5bcc89,3e94831e,bf256ff6,3d9107da,3f524198,3ed34efa,3e06f957,bf26944e,3f758b8d,bf6be66b,be668e9f,3ed794f4,bd4f1f6c,3eabdda3,3ee44e82,bd01969c,bdb0a4aa,bf6fd29b,be229d7e,be157b3a,3e64ad64,be98692b,bf06931e,bf5f3be9,bf13ffe5,be4d9eb0,3f1c4587,3f794a11,bddcf7b7,be1c2851,3f02e49a,3e1f4c26,bf60a618,3f4c71e7,be38e775,3e389b49,3f055176,bee14a6a,bf40d69d,bf0831b0,3f17c79b,3f69426c,3eda2e97,3f78d617,bec1d734,3d46ae48,3d4a01ee,bf5e0d0e,3ee39b4f,3f7e76e9,bee54976,bee284b0,3f720ffb,be3de985,be4b7744,bf41f11c,bf7d1de8,bf738130,3e3ae6dc,3f74f34b,beab732b,bd813f07,bef92708,3f02bedb,be4d99ba,be960240,bf31b193,3f2fac0a,3e77ba51,3d4ab359,beddab9a,3ef17756,3e779480,3eafd981,bf2e8ece,3f3d49d6,bf475943,3eb5d433,bdadace3,bf786b7e,3f73c6bb,3dc004a4,bf5f99cd,3ef91672,bf757240,beee82f6,be748f12,be08dbf5,3e30a29d,be85a2b9,3e03c210,bf834be0,bf295e13,bef2e3c8,bf5827c0,be770ef7,bf23d1e6,3ed809e4,bf1dcb4d,be4458be,3eb1bd12,bf717957,3f0fe45d,befbcbba,3eb86dd0,bf0c599b,3f759383,3ec0bbcc,befe6d4e,bf5be3fd,bf030402,bf809be0,3ec63a99,bf2eead8,be273b89,3f19dcbb,be37279e,bf00bff6,bf87b08c,be79761a,bf0a9a09,bf053e2b,bf6f2c06,be743e0e,3f302357,be256809,bca8bf31,bf465505,bef6cc9a,bf1474ac,3f17fb71,bec43bf9,be0f4cc2,3d0e3b4a,3f041d1b,3e163d77,3f2e1c8e,bf889034,bdc79a67,bf6ad133,3e985c15,be1c4c41,3f30c219,bebb85eb,3f2fb04a,3f105ff8,3edb1663,bf989c8c,3e93e6c9,bdfaeb9d,be969b8a,3d43b222,3f175736,be2d57b6,3f4d4924,3f005b52,3f619539,3f1b151c,3f5a7d87,3f4be5d5,3eb244cc,3f494c2b,3f46848d,be91e4e3,3f464805,be6c4671,bf30492c,be8f8f62,bef09cf8,3f226708,bf8f751e,3ec2e2d1,bf64642e,be814216,3f20c702,bf808ae6,3e85d657,3f170961,bf0d45f1,be648678,bf615397,be1e4579,3b858bb6,3e50d34d,3f583958,3e38741e,bf3339fa,bec8fa4c,bf3a2be0,3db3c540,3f6bdc27,3ea66908,becd74e1,bf908341,3dd57f33,3ee8f7ce,bf9e6c68,bf8be22e,3efb638c,3ee19192,be021b01,be63ff80,be872efa,3be55490,be25f9b6,3efb1502,bf427bf5,3e8d129f,3f77c0e1,bdc755bc,bd91b84a,3f43ba54,3ec8da16,beb56e48,bf41707b,3f29c033,bf6dea36,3f29ab13,bf1ab0f8,bddecba8,3f1cd321,3ef7d268,bd9d41ee,bd9d3c38,bdb8c7c4,bee9c48a,bf7c4e19,bf477966,3f55e839,be68e9c6,bf88beac,3e30ba1f,3d2c455f,3d7be9b8,bf2287e4,bf245c9f,be806f65,3ed6b607,beea320c,bee95a9f,3f554ebc,bf44accd,3e714e8d,3f1d2b4a,bead8f0f,3f1205e6,bf5c079e,3e87ae93,3ee98f9e,bf90756b,bf9d003d,bf8d2091,bf24c24a,3ed9ed04,bf13b377,3ec5ed75,3e9cf2d6,be3c0342,3ecb37ca,3f5e8f4e,bebbe846,3f36cf7f,3f7b14e4,bed1e424,3daef680,bf3f60ac,be62585d,3f2eec59,beb0ac59,3f7da4ce,bf74bbf5,ba980921,be6dffda,bdce92ec,3e24b5be,3f28a3ec,bf8e559e,be8556d0,3ed75f82,bfaa1c68,bf3ec76b,3f0d94a0,be00ce88,3ec42ece,3fa19f07,3ed6ef63,3e000e8f,bd7e3b18,bdff461c,bf35e292,bdcdd464,3f4fe328,3f94203b,3ead63d4,3f035455,3f45f7f9,bf1904a2,bdcf2f68,befab855,3ed04c2d,bf69073d,3e452d42,3f14ba0f,3df3da7e,3f1a8376,bea1a50d,bf01c70f,bf8d55da,be948ca5,3ec1a838,3fa72dba,3fb6c32c,3f208715,be8b03f1,3f795131,3f277b91,bf4e17c4,3f77c6fa,bf101a52,3f5545f6,3f824970,3ea4dfee,3f3b75a1,bf3a7866,bddd0009,bebd1b99,bea3042e,3e06239f,3f67ad80,3de5283c,be1a97de,3dd1df6a,3e3c6073,bef0130e,bea705ce,3d888b4a,bf8ff5c8,3e867611,3e7437ef,3f8085c6,3e847628,bec99c85,3dfb486f,be41cea9,3eea435c,be3c82b4,3ecb7295,bde154d3,3e6f0366,3ed8a791,3f80cb3d,bf5eae4b,be1c03f5,3cf61a9f,3dfba267,3f4627e3,3f43c83b,3f407fe0,bcae36a5,bf39bb5c,3e52c2b4,bf82678d,3eeb5ae2,bd316281,3e8a7fd2,bf234c95,3f2e4fe7,3f60d7f1,bda83e0b,be753c59,3f191353,3f0e2143,bf44d95b,bf39f743,3d0663f8,bf80ec7b,bf6dd76b,bf4e1a5a,be1c70fe,be183d96,3f249a30,3f6ed439,3db2705b,3ecc7376,3f3231b1,3f7b3699,bf2924f6,bf34fa95,3f005790,3ec11adf,3ef81e2f,bf6239dc,bf49d6b2,be76387c,becc54a2,3f3bee41,3f59f527,bea4da12,bf0816ba,bfa7bd05,be9b7d3e,3ea03f2a,bf4f195f,bec5b430,3f1c2759,bef6d8a1,be6d1797,bf279cd2,3efdacb7,3e6490bd,3f394c37,3eb22ef0,bf478256,be1b0f6b,3f1ec9db,3ee4dba9,3ee9fd19,3dd7eafb,3f4aa52e,3f0d50ad,3f3cbccb,be82dbad,3f0e00d3,bc55b3c5,3f19a2e5,bf2ce246,bf98eada,bf83fe39,beb6e1ee,3e9c340a,3e193ae3,3f01e862,3f3c4478,bf62e09f,3e326c9c,be054c71,3eb0acdf,3f171b79,3dda76af,bdd4ecf6,bf3c5a93,bd5c6a11,3f3fc7ca,bf6b0a03,bebddc8e,3f04145d,bf4e6506,bdda2d14,3f879d68,bdaadefe,bf188d3a,bef6a17d,bf1cc9e4,3f210f52,3f021d55,be8c365b,3a8c851c,3e454aba,be1f2d45,bdfd0919,3e9df467,3f23dfe2,3f03fb4f,3dbad150,3f4d4807,3f77452a,bf6242ab,3f797c60,3e8146db,3eceac8a,bf059fd4,3ee1250a,bdb83ea4,3f370c51,3f5f80d0,bec895f5,3f4ab1d6,befec006,bde220ad,beb12a76,bf2cd5d5,bec26894,bf70a21c,bfaf168c,bf5fc560,bf9942fe,3e7d8891,bc40072e,bbe4d7c8,bce38dc1,be3bdfa6,3f774eff,3d024e52,3f4be06c,3ed2ba7a,bf7409f0,3f099c14,bf265e7e,3f8bd6d4,3f65805a,3e8d1a71,3f50357e,3f845ca9,bbac9267,3f28a819,bf379932,bf4e20ce,bea5285b,3e9844c0,bf580819,3b39ab7c,bf1e6a05,bf3f3438,be0a5efc,be921e2e,3e916870,bf78c5e2,3ef7a05e,3f4575ab,3f3b12e2,3efbae79,bf58c716,3ed54ae5,bf10d4d2,be4687ef,bd66e0bc,3f3e2319,3d890e57,bf1cbbb1,bf13f643,3f38bc44,bdb7f3cc,bde6929f,bf481bd7,3f4f3570,bf1893d2,bf5429f3,3ef7984b,be4bc88d,beedc138,bd56b464,bf9327b6,bf146d05,bf6947de,bf24094a,be1faf46,bf72f183,3dac09fd,bf6e9cd5,bf12d2d6,3f21e2b5,bf525c8e,bf7d3408,bf67127c,beffea84,3e96974d,bf3b2b11,3f7cb0ab,3f4d2073,bf39894c,3f66ffd8,3f0b1310,3e8d9270,bdb8f862,3ddefa75,bf375bec,bfa0b28b,3eb1ef48,bea3f124,bee23faf,3f085e84,3f1666a2,bf1b0330,bf2afa9f,3f309260,bf2e986d,3f02ed47,3e0a20da,bedd4de5,3f4b6975,bec66506,3e63bb60,3f1c2f78,3f3a6a32,3f66eade,3ea40a21,3e4e590b,3eb169bf,3f003e89,3f048ad9,bf354286,3d645cbd,3f246e92,3ed5e334,beb3103a,3e1ab9ad,bea48bae,bf94ad6f,3e9943e5,bf21aebf,bf150b8f,3ee23c6e,3e94544e,bf728bbf,3ed0167f,bf1bad67,be9ae656,3eabb32b,3f0095ed,3ef40551,bf047ca8,3d29d0cc,bef366a8,bef646e1,bd85fed3,be8310b3,bf2a2ff0,3dc93c1e,3ec0151f,3dfab67c,be88bef0,bf1d3273,3ec3efa4,be6d10a9,3d9435cc,3f1996b3,3d7f9267,3d5dbaa9,befed7e5,3ecb2a69,bf3946d5,3f0ecfd7,bf079139,3dba6710,bf48adc8,bf332084,bf18a631,3ece44d5,3eacf1e9,be249a2c,be7bb5bc,bf79d2d7,3e47596c,bf038185,befe5699,3d8ac94b,3e616efb,bf13112c,bf6bbe65,bf379e9d,bf07cc84,3f19b6e1,be254f51,3f150366,3ec936b0,3f0bd280,bf59d853,bf325a1d,bf79ef0a,3ea94b0a,3eddc96d,bf0f5e18,3e0a39ca,3f03fd8d,bf2d1793,bf41d6f4,3f1aa311,bf266a16,3f42f32b,3ebddf94,be59bd1b,bf3ecd9d,be4a97a2,bf26e4be,3ec0f17e,bf70e269,bf28c284,bf75e730,3f0e18e4,bf661547,3e91e7f5,bd7bb6c1,3dd6fce0,3eb9e66a,3e08dc57,3e32a1b0,3f534145,3f18bf65,3f7de95e,3f1f80bd,be9c69a3,bee5d1df,bf5df743,3e86feaf,be4a7136,bf01f1ce,3eef52cc,3e9dff84,3eeebd7b,3c811a45,be09ef97,3e56f119,3ea06882,3eeec2a6,3e8e0a44,be2da2d7,bedabde3,3ed8032d,be4c034f,3f431adb,3f6215df,bf12132c,be5a1769,3f518c16,3d338564,3c8e8722,3f44e358,bf00b795,3f0d48a8,3ca4147d,3f7293f2,3f2f9bf8,bf02e777,bf829c10,3ebcee7a,3f071984,3f018508,bf0ee1c0,be7c5c57,bf5eb750,bf200b11,3e1fc975,3edd2bf8,bf4dee98,3f064028,3e51573d,bf49f7b2,be783636,bef934b8,beaf63b0,bf12e073,3f5e19a0,bf3a1551,bf279f23,bde85f76,bf5dd5a3,bf6624a0,3e8dafce,bea9927a,be99af1b,bf24c7dc,3e3a2b33,3f23d5e1,3d32b5b9,bf146f74,3f0c54b6,be169166,bd8e26d8,3f1bab40,3e55745d,3ef28c9b,3cf857eb,3f5d717d,bf54c4d8,bd69dc66,bec481e4,3f421d9e,bf10b8b2,be949e6a,3f2e6365,bebf8080,bf14447b,3f36fcb0,bf605690,3f3e9915,3f71f306,3ee5656b,bf3ff84f,bf4f810f,3d945427,3f4484ff,3f6f92c4,bf68ac6b,bee0a3b2,bf70eb78,beab57b7,bf077579,3f6a138b,bf4e7c67,beb43642,3e21443c,bee0fe96,3ea0d6eb,bf043a49,3f033a1c,bf704eb2,bf50ef8c,3cdb2bd5,3f24b8a3,bf2cc619,3f73061f,be10c63f,3df7ad0f,3e36a6bd,3f5d461b,bf104439,3e9119f9,becd5862,bf3fcfe7,3df54800,bead716f,3f1585f7,bf2f3dc2,bf436444,bf60e4d9,bf5ec512,bded9d8b,be382b05,bf6441d7,3ec38fb3,3f0d7e62,bf15493a,3f331091,be95c478,3f093fc4,3f4ec4c0,3ed3f03a,be42ebeb,bf3d392a,3f74276b,3f531d42,3f56020f,bedc52e4,3f007ddd,bf07b9fe,3e9acd0d,bf210ec9,be33b348,3f166056,be7dd707,bf5bb675,3f54ea76,3e8c71f3,bf47b197,3f2307cc,bee07cbe,bd0bb1f8,bf0abec4,3e66f481,be315178,3f0d7379,3f046684,bf673565,bf7b1a9c,3f0c03da,3f2c0cd5,3f28db40,3ed48133,bf44936f,3f38f114,bc998691,3c25f004,3f6c643f,3f79b15e,bf3c335c,3f1f5f59,3f727cb6,be957db7,beb37900,bf0e8a45,3f4fc8f4,beee08f4,3f033aec,bf0128a0,3f4cc995,3f25f344,3f7c84a1,3e4494d9,bf3df26a,3e6b6235,3ea91ab2,3f3ba586,bf7c982c,bed845e2,3db9b296,bf599297,3e96addc,3f4bc543,bf1f9f9b,be4e71a9,3f13e5f8,3f42a953,3f0fc1b7,3e0d235d,befde18f,bed2c28b,bbd23139,3f0cbff3,3d9282a2,bea81ea2,3ed751a3,3f961500,bc879b19,be0ca739,bf503c80,be0cb403,3f01b99a,3d9e326a,bd936a7f,3f5e9de5,be8e255e,3f36d79e,3e852a94,bebb4ced,bdd437a8,3f679121,be957033,3e0e47b9,bf6275b6,be945e3f,3f5cf6ae,befd89c7,3f6f6d5f,be55146b,bd78dc8a,be50d93f,3f83d4d9,bf00b196,bee81937,befac44b,3e3b67cf,be9e93f4,3f23d8df,3d36a0e0,bef05225,bf73c48a,be65d308,be901d1d,be86275e,bf5a3d7b,3f457f7a,3e2ba540,3ee473eb,bf1b1cf0,bf731c1c,be7fb8da,bf5d6268,3eba35c8,3f3b8cf0,3f095343,3ed3fec6,3f0df667,3f7236aa,be949187,bf7e2365,3f02b170,3e6bd756,bf8f2e2d,bf965937,bf031753,bf9e8265,3d4cb1c1,bce96ab2,bf17b97d,3e5eecb4,be460da9,3f04bf32,3f24b760,3e80d129,3f067e8f,bec2fd4c,3ebfce7c,bed4ddbb,be85197a,3c5bb378,3ee36ac8,3f897433,bdce9dd9,be89befc,3e58c4c7,beb62052,3d465ebf,3e7f7bf1,3d47bd71,bf0a4fd6,3f9e0bc2,bf0ba7c3,bea131fc,bf6458c3,bf9c69bd,bd820549,bf315b42,bf5d8eb8,be06e00c,3f76179d,bf4d19a0,3f76c382,bf1b1cc6,3f25b995,bf491192,bf38745c,bded860a,3f16338b,be8d997b,bdcfe7cb,3f7b89ca,3eaa06ca,3f868d1e,bf173936,3f2693bc,3d0c002c,bf2d62c4,3fc7e134,3ec1dcfe,beec6141,be6f9f60,bf70726d,bef12a65,bf2936cc,3e78341d,be7ef24d,bf6e3dc7,3f030b1a,bdbf8d74,3f3af41e,be062edd,be8af59f,bf32dd74,bf203c38,3f4fb243,bf5b5e81,bf184907,beaf0579,beb26470,3da3c8f7,3f86f984,3ed274ed,bf02e995,3f4c73e6,3f08d658,bf12d9a4,bd4ec04c,bea9b537,3e89bd2b,bcee0d7a,3e9dcc27,bf902ae4,bf57a3fd,bf838d9b,bf61a853,3edcdee0,3f6b9d0f,be568cda,3f2b231d,3f459369,be7587fe,3e6d031c,3eb1cfa0,3f3e1a2a,3d7ad565,bf418b8f,bee0d1cd,beae8b63,bdc73274,3e858430,3e33a1eb,3fa5982d,3f1abfcb,bf3005c5,bdf7689a,3f20c080,beccf16c,bf9b7184,bf1ef656,bf94e45e,bfa30d48,3ecfad52,3f2d6df2,bee93b2c,3f7ab0ec,3ec8571f,3f467908,3f2888b1,3d548af3,3f597ecb,3f8dea4b,3e53f989,3e8e17db,be914513,bf42d3b0,bec0cb16,be1443f6,bde3abf3,3f21b5e7,bf4ce9bd,bf71a7de,be9b1ece,bf62f1cd,bead1c7f,bf3b9496,be5c8e4b,3eaadd9b,bf06129f,3f07e10d,bf4f51de,be7a981c,bf6af98f,be4be69b,bed4c060,be28e860,be86350c,3ea5ab48,bd9eeb4a,bdb07bb7,bc35eaea,3f06859b,3ea4fa5c,3f25cd9b,be8d2a4b,bf0dcac2,bf31311b,bfb1700b,bf897851,bf2eee6a,3ec3931a,bd215b8d,bf0c5a0b,3f67358d,3f6e05b3,beb39aae,bf3f2772,be34063c,3f06e9f9,bf8d3f5b,3efc0ced,3e8c8d8a,be67ecaf,bf0eb0cd,3eb8132c,3ed1af07,3f1de21d,3d775dfd,bf934215,bea6c3cf,bebedaf6,bf3eacf6,3ef1d8f4,be9c0af2,bf470c97,bff0da51,bfbcba99,3d31de5c,3f212298,3f16649a,3f87b0e1,be1a8e92,3f4a300b,be9aea98,bed2b2c7,befedc4f,bf55c331,3f676cb9,3ed5304f,bf281fcf,bf507460,bf0f4519,bf4046a9,bf5dfd9b,3ec5d5ed,3d826c52,3e5e7322,3eaf055e,bf4d2e42,bea440be,bfa2a6b4,bf7a37b0,bec62a34,bf5e9f6d,bf60d6ae,3f2c2c30,3f4ca701,befd4b52,3f116cab,3ec2d843,3e39496e,bf16c44d,be8f8b30,be62aadd,bdf4c189,be411185,bca74ff6,befb0615,3d2b6f31,beead6c6,bed46cd9,bf2858dd,bf3d41ff,3e7a195e,beb427a9,bf2cef19,bf80b526,bfa5499f,be4a8c21,bf5761e8,be440821,bf6caa17,3f7af14c,3f877d5b,3f0b907e,3f9b3662,3f4b7144,3ea4dae5,bf005c43,3e2fa5b9,3db9c0f4,bedc7e3d,3f131e0f,be8c1e0c,bdce3e7e,3f4665b7,befe8cab,bf5cd5fe,3e7938cc,3e8f5a5d,3f0faa1f,bf0d4f9d,bfc2a854,3f05b7b8,bd6388c9,3e56a006,beb6ffe2,bf6d2e37,3c7fb92b,3e48acf6,beafbde4,be98a1ec,be9cf60c,3f9e7634,3fa4139f,bdac18b6,3e719042,3e22ec28,bc106eff,3de35a8e,3d9ea867,3ef7fead,3e59ba37,3edb5e6c,3ef09689,bf2c3002,3ec84ae7,bf702bc4,3f4e919e,bf6ed770,3d1750d7,be59f90d,3d954e98,3d9e7226,3f342779,bf50bf0c,bf65fdc4,3ed055da,3dd61ebd,3f3c95dc,3ea2b8d0,3f934a67,3db87c0b,bef5a328,3e8e915b,3f2c2dba,3e8fc350,be853c86,bd0e87f1,be84b35b,3d6c23db,3f17a171,3f15c051,bf30e486,bf08f89d,3f63d202,bf6ee96a,bf1687b8,3f22e10f,3f1b3dcf,be99646d,bef365c2,bf697e4e,3e7e3c67,3f30f86b,3dbe541a,3cb3401a,3f0793b6,be81d3f7,bef4467a,bf07ec60,3d98c707,be99c463,3eeb3769,beb5bd6f,3f316570,3f025b51,3f482ba1,bef2bc46,3eaa39ed,bf49320a,3f11006c,be8b6a8e,3f5f6c16,3ea3d02a,bdac0d2e,3ee1347f,3f4a6fec,bec0832f,3eb1cb6a,3f60c6f5,3f212e73,be18bbd7,3f615b69,3e8f1167,3f296f4c,3f434831,3f31064d,3f3932d6,3f364abb,bf4ed3d8,be8a2288,bd5ef760,3f102752,3f6fac06,3e87476e,3e539581,bbecd38c,3e4057f5,bf73b940,bf0adcd7,bf10da72,bf82351f,3f2548e9,bf0a9ef8,bf2daf7b,bf146b36,be3f8a0b,be83708b,3d5f937b,3f0f7bc8,3f2b9ccc,bf04ea29,3da64db9,bf54c880,3f457e78,bec69d07,bf84e78b,bed744eb,3db4ae24,bd36235f,bdd9ab78,be8bb6d6,bf03c852,bf3f15b9,bf2d6313,3dbaecb5,be489121,3f7b16a2,3f6ed0f2,3f840a98,bf748f2f,bf072039,3f0e883c,3d1be387,bfa2edb5,3e128fd8,bed152ce,bdc65f24,3f14d9c4,3eff87ea,beb5bf36,bf4773b7,3e195b2a,bf576495,bed8bf0e,bf95bac1,3e98e4d8,bdf32822,3f20b68c,3e2a0f28,bf34ec9a,3f7a2471,bf205fa6,3d914b25,bef1b625,bf385a33,3e176471,3f5c45cd,3f17124b,3e85d852,bf93f8ae,3e8478fc,befb6d05,be715cc0,bf3cc95d,bf30eab1,3ea4c12e,be821062,3ea18b7c,bd8b39fe,bfa9dfbb,bf0edb3b,bea80f9c,3ed68f37,3f3c2901,3f682416,bf14d5fe,3e1b4643,bf71b1d7,bf079010,3f060464,3ec5e174,bf3175fb,bf764f27,bf12d4a1,3f385d6d,3dfaecd8,3f11a280,3ee015a1,bd76b540,3c482815,bf4bad0f,bf9e5808,be1e6408,bfd0bea9,be695fae,be39c85f,3e5f6d5f,bf360506,bfc51e49,bf96d24d,3e819e81,bf8875fb,bf53d5fa,3f43439c,3f1e5049,3efca456,bf625422,bf287cdc,bea85b54,bf4c3c69,bf4beaa9,3e8826f2,bf77a9e8,bf3eb873,be846c5a,3eaa08f7,3f52b3eb,3f253cb0,3d9c003d,bf091b33,becab58a,bf0e2b8b,bfbdf839,bf81aa21,3db40d1c,bf987998,bee105b5,3e5f63f5,bfa613de,3e0dc73c,3f64e6d8,bf32b9a3,3f7b2441,bf1c7ccf,3eba40f4,bf40507a,be75dd74,3f449d3d,bf11ec6c,3e763061,bf70815f,3ecd99dc,be0c0968,3d9936a8,3ee277bb,bee90633,3f22eea4,be078791,bf94a35d,3f114560,be3a7cea,3f2cb0a1,3f278181,bf514801,bee493d8,be8853d1,3eff49db,be19d4d9,3f494bbe,beda71ec,bf32d331,3e96559a,3ef84d84,3e5232fb,bf616f80,3eaf17f0,3efc8690,befedecb,bdc78d9b,3efe2d75,3f8411a6,3f05bdc9,be70fe45,be394fcc,3f012896,3fbeeabd,3fcf009d,3fc1f6a7,3e87cec2,3f788709,3c28c8f2,3dc02e06,bf50e9dc,be532272,3ed58d98,bf2f276c,bf47b960,bf320a79,3f108bc2,3f3eaf29,bf29654d,3e4acd9b,bde4be2d,3f59bf93,3f2c192b,3e3cfc91,bf547821,3f734511,3f3c8ef3,3e5bf24f,beb8ea61,3f5fdbe7,3f1e265e,3eaaccc0,3ebec75f,3ea1209a,3f808771,3f6fe39c,3f819d7d,3e98b57e,3d3a8ebc,bf080b11,bf451f8b,be671b13,3e555c31,3f5dfdc0,3f2ff2b1,bf2d7833,bf736383,3f3d13ab,bf025b3b,3f7f88dc,bda306fb,3ea5dc7a,bebdede8,3da9d627,bec16482,3e75110c,becf8ac5,3ed7bca3,3f6ae0a5,3f74bf54,3ca072ed,3da28569,3f16e9ff,3e5f6d59,be69b7a6,3e5586f3,bea2e13e,bf04f413,3f1fbe60,3e86c331,bd43ef3c,3ecaadb6,bf55a51a,3f3bbe3c,3eeb714b,bdc5e5f1,3e9a4c4b,3f4c4b73,bf254312,3ef8f20a,bf0d8b0a,3f667ce0,bf61ec6b,3f2b91a5,bdadd515,be443f68,3e8f86f6,bea44eb8,3e948a61,3e770ea5,be20b2d9,3f452f79,3f79abd6,3efb9893,3ebf4aa5,bef1b2d7,3eb84620,3f5fe6f1,3ed24dad,3ef6d502,bed17ef3,3f41d8df,3f184ae7,bf7bf5f8,3ef93fdd,3f4a309a,bef12798,3f595053,beb8656f,bea26a74,be379adb,3dc95b67,bd85db20,3ea25cc2,3f5c12d8,bf269678,be0e831f,bf219574,3e370c75,befb51c6,be2ce8aa,beb65802,3e277dd7,bdb5f45a,3e804032,be25442a,bf6a8402,3f07d974,3de7cfa1,3f6d5999,be9df7af,3f6b60ed,bf1ee9c2,3f1c90c6,3e370cc5,3e6cf569,bde5944a,bf2254c4,3f311b22,3e01c960,3ec7e566,3db43835,3f437100,3e45c652,befcb296,3db99d8b,be7d9cb8,3efc0462,3f36dda1,bf08df3e,bf05b1f8,bd169bdd,bf265a6c,3f01215f,3f3ed1c9,3d7b81c1,bf4a6ea4,3f1c1463,3f3dc7ab,3f2692de,3f521c6d,3f242ed4,beefe3b5,3f3a60b9,3e3e8d3b,3ee59d78,3efcb8e8,3f0a4177,3b976e69,bf566e9d,3eadeec7,3f90a17b,bed522b4,bf3ad637,3f3ef3d4,3f1637fa,3ee16dd7,3f07b38c,3e239690,be68ad48,3e53e7cf,bf7e1477,3d90d397,3ea22480,3f42ef53,3ea5c43a,bf0c291c,bed66ac2,3f4f70bc,bf526b18,be9c092f,3f2755af,be65cdb4,3f0a5f6f,bd58f532,bebeeaff,bf0564d7,3f73a366,3ef04ff8,3d4ec0db,be4756fc,be16f550,3ea2d458,3e732cff,bd722ab1,3dde8abd,be96c319,3f180b92,bf0b96ca,bef50d1c,be01acd1,bf1eca0f,3f48fb04,bf73d9d4,3e95987e,3f1d8324,3e1af08c,be5ec6d9,3f3c3585,3e32f31b,be93f86a,3f8a7a97,3e269c56,bec4683a,bea20c37,3eb6b9a4,3f9be386,bf48cfba,bebe91eb,3f6c6f07,3f026ccb,3f86023c,3dc99472,bebfadee,3f40c1b2,3f329918,bf33853f,3ec0b914,3e54f898,3f28719e,bf10aa1d,bec12ad2,bd4a3041,3e2ac730,3f7649c8,bf2564ef,bf23e665,be89f15a,bf27fca7,beb80a5b,bed54469,3f995927,bda95ee0,beeeb794,be32ac04,bed81567,3ecd9a8e,bd942352,3eca0a5d,3f73f6a0,3f9e1e74,be867451,3c108701,bd557c72,3e221c4b,3f06d4d5,bf79b129,3f0f7e6d,bf9fec65,3f1c2844,bf3076d7,be5c48a1,bf67e050,3ec25526,bd9614e4,3f714c65,bec1b657,3da55170,3f0a1d3b,be3c4985,3caebc67,bee1cbd9,bec68b8e,3e46ea43,3f97f5fe,3e836041,3fc3e58b,3f89728c,3e66bc51,be181b9d,befa88f7,bf081200,be871e74,bf32d5f1,bf739f13,bf7c1480,3d1fe2e9,bf68604f,bf83b2a3,3ec2bad3,3ec4390b,3f6509d5,3f4710b8,3ee95e9a,3f9507a0,bed5b4ff,3f49dd3a,bf2b3a14,3e627333,bf8b5480,3e40496f,bf97903e,3e8da782,3f59f7b7,3efa8dc3,3ef69392,3f862b75,bec825ad,3ed9720d,3e87a27e,3e7f42f1,be1e65e3,3f2565fc,3ec7ec1e,bf5effc2,bf688ed7,befbb534,3f2ee62a,3ea06734,bf0ba04b,3f208c0e,3d5314b7,3ebf2d82,bf162845,3e9352e8,bedbf0c4,be5f7ff7,be5d6524,bf4f46ec,bf10eb43,3f3b57bc,3fc32957,3f1233cc,3f1874bd,3f3dec4d,bed334f4,3df5620f,3ecb5b01,3f14a742,bf51c236,3ebf5be6,bf8f3523,bf9d007d,3e308e93,be879372,3f0e1c92,bf3bb0af,bf3121c3,3f5547d9,bf2c93a3,3f233e5b,bf232dcc,3edb3194,bf51345a,bf2e6106,3aa5c1a0,bea583d3,bf5f1be4,3fcfcf42,3e94ae5a,3fd8569c,3e678d07,be41024d,3f908ab2,bf229f20,3d114837,3dd32576,3e667e1a,bf296694,3ebf7815,bf08a1a6,3e248559,bd3f0eb4,bf4598ba,3f7c676d,3d9955bc,be1ec280,3e3aa127,3f75e9b7,3f184a35,bf15fa66,3ecc6734,bf9842a0,bf89fc00,bfbb4946,bf9144de,be0e0ff7,3f80a714,3fbea2eb,3c963eaf,bf19591d,3f87c8c8,3e901629,3f4c88c5,3cff909b,3f752271,bedfa7b6,beadf24f,be8f1238,be0b83e1,bee85040,3f7244ea,bf699c03,bf110276,3eae6506,3ea0cb16,3b7c1fd4,3f5233c4,3eefba49,bf376ac2,3f3a538e,bf83de13,be7846dc,bf3d32e7,bdfa90ef,3e84ad20,bf128f33,3e98c68e,3ebf2852,3f3671b1,bef31571,be3fd6cd,3e5c9ec9,3f5da6b6,bebfc9b7,3f23c408,3f0ae6e5,3f29c595,bf46af29,bda5f9bf,3dedd4f8,bf490c6c,bed54ffe,be0e7f61,3efa3b18,befdc274,3e4e6357,3d315a2c,3eb30727,bf316422,bf90320e,bfa0d438,bf940dee,3e821eb2,3efe0a8f,3f1510ff,3d127c03,3f7ee472,3f84fc70,bf0c44c9,bf6b00ec,bf8c0548,3f8a2cb6,3dc2fce4,3f4833f5,bf3fbb82,bf34690c,bd2165f9,3e4eaf10,3ece2d8e,3defdf21,bc00e72f,bcd85ce6,3f577f27,bf88bc23,3cc413f3,bf252df1,bf48b532,3d89ff97,bfadbfef,bf00ba6b,3f8991da,be5137fd,3f82c5b1,bd0845f2,3e808351,3eb91877,bf53983c,3ec098fd,3c1cbc79,bf809fe2,3edee230,bf4f36eb,bdf859f5,bebe835d,3f4ba633,3f588b08,3eee544c,bd99036b,bf861d4a,bf81276f,be0d2da6,be3a34e8,3f532965,bf31bc6c,be80b1de,bf252dae,bf5321bf,bf6867af,3ed3631d,3e71f1b3,beceea6d,3e869d8a,3e8ed698,bf0e9a98,3e211467,3dc3f36f,be257b80,3defa03c,bf20b55b,3f882bdc,bd62af5d,3f81eacc,3f6df0bb,bedee909,3f2dfd9e,bed855e7,bf2f6f88,3f6b2fd7,bea0cb2b,3f05a8e9,3f30744a,3f324781,bf3d0e10,bf18aaa9,bf76ab4b,bce951d9,bf59a763,bdc0536e,3ee9db71,3e9fe06a,ba2ac825,3f729d9d,bf1f5a7c,3f3f0b65,3eb6010b,3f4709ae,3f123b95,3edcb037,be8e7894,bf693d50,bcdef31e,bf13f9d7,3d485c1d,3f78ec59,3e88d315,be9c2a2a,be7d85c9,be38b596,3f60c59c,3df8882d,3f0a8fa8,bf02b787,3f1001ac,bf486290,bf79d40e,3e505643,3d4a3da1,3f6f571d,3e3aff0d,3e59740f,3fae7910,3f3fb1b4,be008511,3e8b8e38,3f7ce0a5,3da53f2a,be6940b0,bdae47c1,3f04c08a,3f34a3e1,bd3af5aa,beef66c9,3f011c75,bef0a88a,3f00224c,bea9d313,bdd08c07,3e8a1e0b,3f235f04,3f3fb133,bf0a52f1,bf80b68a,3d478537,beabfdcd,3ebf35a7,3f79955a,3fd8ef23,3f58f5c1,bf46ae57,3ee1c7a7,3daa9c18,3d24477b,3f44e017,3e7d3485,3bfeaff4,3ed274da,be139b60,bef7d08b,be131bef,3e88cd39,3eb03c6d,befaa6a0,3f445d6e,3e61ad25,3ebcd050,3efa9b3d,beedea26,3f34ed3e,bdc7b1d9,bda4fc48,beb7e0c2,3ed8278c,3f87b4c5,3ccd4f28,bdc34eec,bf129fca,3e40e27d,be74ce19,bdadfd67,3ed300dd,3ea82c24,3f0f5968,3ee63e6b,3f7ddf12,bf6a1b24,3e14beb1,3f202e54,3f6876e1,3f778303,bd57539f,3f1478e4,3ef9a5d7,be5c35a1,3ea54c71,bf318fbc,be5c73cc,bf5a0038,bec75254,bef03935,3ec443c6,3f389d59,bd931a36,3e023eb5,3f256045,3f232190,bf3172a0,3d903e52,beea77e7,bf6f2c64,3ebb16f6,bf6a49f4,3ef7b649,3e4ebd6a,bf311ddf,3e6fd706,bee4734d,bf47fbf4,bf190eab,3f234af9,3e947426,3ea5aa09,bef68a8a,3eb75f6f,3f7237b9,bf282be9,bec5b334,3ca52366,3f3f8f55,bd8a02ed,bea0456d,be806988,bbb3f607,bda82154,bf19d8b4,3e199460,3f263620,bf30b7cc,3f6c0b9e,3ed97acf,bf7399ed,bd9d9507,be5f9a03,be32bad3,bf346cc5,3e799b8b,beb54a63,3ee34256,3f283b77,3f7410bf,3bcf8131,3e83d27a,3f015033,be6f3d88,3ea3d800,bf940aae,bedb6d62,bd5b44e2,3eff6429,bf6d0a81,3c12f9dd,bcb8c296,3f746aa4,3f76a423,3f077513,3eedb8ea,bf124793,bea2b4a3,bf1ef666,bf4882fd,bf4d865a,3dae42ca,bf1b697a,3f5aa720,bf05ea82,3e1e7ed4,bdef3418,bf267d67,be882958,3f2d167d,3f905b4a,3f5827ae,3dad9f41,3e67c7d8,bf02adbc,bf15b9e9,be30fef3,bec59d97,be9357e7,3e6df2fd,3f861484,bd48f477,3f549d80,beae8f9e,3f797cd5,3e1779e9,3f4c1f40,3f57d764,3f0fe95d,3e84329a,3f74f46a,be12a4b9,bf6081e7,bea77cf0,3f879455,3f08be56,bdfda83a,3ea68bf5,bd1db86b,befdf237,bee34552,be1d8b28,bf3da3c5,bc6f69f9,3c74b7fa,bda42599,3ee49ae5,3eedd5a7,3ec7ce5a,3e1a2d6b,3eaf2888,bf6ee363,3e2df214,3e92e245,bf20176e,3d7973df,bf050cec,beb2ef79,beca1f90,bf27ca02,3f618174,3f5f793e,3eaed68f,bad41f12,bf1ba077,bf2d48bf,3f3122cc,3eb7372c,3f41dd74,bf293222,3d180d59,be89d19f,3f712559,3f4c4bb5,3f91d371,becd3ffb,be3c84af,3ee7c671,3f6a2fc3,be9626d3,bf2a0211,3e256403,be96b890,3ef91eb6,bf7027f4,bf5f5a58,3ef6bb89,bf6141a7,bbf86dc2,3d369ac3,3eeb98e9,be8ac0b7,3e7f5ca7,3f98a005,bf17d65a,bd370217,bf06e9dc,3f17cffc,3f8e4e15,bd5c97a3,bea628e8,3f0e4b04,bebf32c3,bef33555,3ea192b3,bcb293cf,3e968442,be16b21c,bda36ed2,3f2016a7,bf035199,bf4b730d,beaf23fa,3f5370cc,3f2c8e7c,bf711eda,bef4611b,3f6deaca,bf01cb29,bf480899,bf63eaa6,bf0d1b36,3e84d08b,3e2cf4f9,beda6ea4,3e94cd7a,3e56d8b6,bf018727,3f05d518,bf5d5046,3e56917a,3d821a63,be516395,3f17f671,bf33f986,bedda3a7,bec98717,3e883a36,3f76dc21,3e01de0c,3f35a1f9,3f46250a,be7084ac,be378337,bed6d9c5,3e768353,3ec1b289,bd3f6572,be28c2fa,3e03da6d,3f5d4274,3f7703f4,3f76e1e6,bef271f5,bebba9a9,3e4be1c6,beec096a,bf6bdc75,beafb339,bf264904,bf1b2cf7,3f3f177f,bf1fe1e2,3ee2671c,3ee544bb,3f3361f2,3c8a95b9,3e0c8b6e,bf286c6e,3ea6f398,3f4f7822,bf01600e,3ea8cd97,3e22211f,3e1fe71d,3ec81f13,be48c96e,beb0aa1e,beb6e31c,3ecac608,bf4387be,3e5b18a2,bf696a33,be2c87e5,bf00112c,be2e8f19,bf3c905f,bf1a45fa,3eb96ee3,be9aac81,be826bf7,3f277270,3f5d997e,bf0a97f0,3edf93c8,bf2fedf6,3f220451,bf0219d3,be9c6a11,3e3ce7ac,3d70d580,beb52069,3f155fca,bf39caba,be46f23f,3dc744d0,3eef0537,be6e3231,3f51739f,be12b049,3cfbe617,bf27b76e,3e883f6c,be16d354,bf68ec54,3ed67fd5,be07583b,3ed23198,3f6750e1,3f1885da,bf136b94,3f4d0df6,3e931d9f,3e56677c,be02d7d0,be8db46a,bf302335,bdc217aa,3ef6fe78,be8088f9,be951fe4,be1db5c2,3f06e490,3e545a94,3f180bf7,3d874f63,bf48f4be,bf0caae3,bd3a77d0,3ee084bf,bda6a2ce,3e408c72,be97dc68,bf2d72d5,3f2485e7,3f473534,bb7389b4,3ef6a888,be325ff2,3ed648b8,3e044e6d,bf1f9f6a,be7e8562,3f1d8862,be8f636c,bf007c6d,be4d0ca2,bf600b28,bf1b000d,3eee5642,bf4a853a,be4ea992,3eaec670,3e87e391,bf8065d8,bf54ad5a,be9bdccb,3e4c4055,bf5b9b41,bdfe9f4f,be9d8a5f,3ed5766b,bec18a61,bf82c24c,bf8056a0,bd9a6662,3d715624,be8a2154,3ec1f0a1,be5298ac,be25aedd,3f6c2b9f,bf43e65a,be4dfa19,bf0c9a71,beaa5132,becfbc48,3d68af65,bf951988,bea030e1,bea2329a,bf0726a1,3e95ae90,3f155269,3d5c38b4,bec2ad29,bf23344b,3e91dcf1,bef3bee1,bec5c79e,bf27a525,bedf5c8b,3f08467f,beaf2187,3ee9f8b4,3de53204,3f7d8e2b,beb90f4c,beb78f6e,bf4c7d43,bdd8798e,be9f2221,be19f02c,be8b5b5b,bf69198b,bf4bad2d,3ee8f728,bf859ce2,bf00f026,3f4be549,3e40823b,3fb26bfc,3eea214f,bf6a164f,3e062a99,bdc66453,3e1fdcc9,3f4e0394,3e71136b,3eb656f8,bebcb3e9,bf1a41b9,3f613e44,3eca7a3d,be0e2971,3f5bcab3,bea92f15,befd2f92,bf6ba7b9,bf19dfb1,bd512e24,becf8659,3eb3b5f4,be793e4c,3f0a2556,3e539340,3fba8290,3ea775be,3f95951f,be1e3a8f,3f204150,3f5051a7,3f619dba,be4d14bc,3d217417,3f4e3e1f,befc8eb1,3e36e99d,3df99b2f,3f50e950,bf62d12c,bf413adf,3ee6b63b,3f1e0c6b,3e893687,3f473074,3ed01cee,bdd742de,be74e65f,beefe6c5,3ec87317,bea72dbf,bed152c3,bdacd057,3f0fef4c,3e55a375,3f61bee1,3f525011,3d6a19f3,bef75a36,3eb4a760,bebe443c,3f7671fe,3f284443,3e2879ad,3ee34909,3f7f006e,3c9b8b21,3edbf81f,3f0bfd86,be90b879,be4f677b,3f0eaf5a,bedf026c,3f2c8cec,bed069b5,bf6d6300,3dfc0c39,bef6718e,3ed1ead3,3ee06024,bec4c6fd,3f59191a,3f5244c0,be72d387,becae6b4,3e7998f8,3ce7d096,3e500823,3f449e36,3f5e7eb6,3e5d6233,3ea60a47,3f880ab2,be90af62,3f6ca9d6,3f0b9c93,3ed779b1,3f37d336,beda104d,bebfc26e,bf31ded0,3ed85a67,3ef7605c,3f249c9c,3ea36d33,bd7ee7c3,3f5b678d,be9b7e43,bd1e9d21,3f4fb28f,3fb62626,beeb41cd,be907618,3ec1c858,3f8fb3e3,bd6f52b5,3f418a78,3efebf70,3eff2484,3f06b823,3f0e721f,3e7c053f,bf080dc4,bf58da37,bf064ad5,bd191269,bd9ef3f1,bdd49396,be36d18d,bf07d79e,bf0a60ab,3f83d793,bf02f638,3f8c8192,3f10f8e8,3f834152,3f0239bf,3d62ae54,3fa52ac9,3f1a77aa,be3f1e39,bf5a1c36,bf00b9ed,3f049516,3eeb6202,be90414d,3f6703b9,3f6ba141,3f0972ea,3ec35c33,3f092ffd,bf0c1605,3e8fa7a2,3edd6814,bf3ff12a,bf797cf9,bf691cb8,3eece7a6,3dff02c8,bf289afb,3eb563ca,3f3667d2,3f114ed1,3deb51bd,3f49187b,3f53a0c6,3f77d5ce,bfab8ac1,bf15cfbc,befefe1f,bd004abf,befa2147,3f412fbf,bf4c6650,3f1e819b,be8d66b5,be93d5cd,bc8aee04,3f52e830,bd884bf0,3f5b24c6,bf246f9f,3dcd11aa,be8c9feb,3ce59e04,bd73bedd,3f683c3d,bf06a2b0,bdadeb1d,3f540b09,3f33ff70,3ff8a38e,3e343cad,3f613ef3,3ea0e1ac,bf99cbbb,bf6ad1ec,3e1478a6,bef025bb,bf5ee186,be1d9c59,be30f86d,3f8f7c89,3f9cd9fb,bef6cda4,3f5fe2e7,bf82d47b,bf5ec8ca,bc7f209c,bf1e4d37,beb3a58e,beb3c892,3f6dd7a5,bf5730aa,be84b873,beaad035,3f57ce5b,3f8a7651,be8d6728,bccbdbc1,be636653,3f3a5f7b,bf26b61d,c0069fa4,bde05c0a,bfb3b602,bebd2cde,be9169cd,be3108d0,bf548eed,3d31fe7a,3dc49637,3ee744f3,3f65fcac,3e1845fd,bf3cd882,3f042aa1,bf02ac0d,bf3d4d80,bf412ef2,3f776188,bf106c4e,beec3fba,3e68ca78,bf1f1735,bf078299,3e9003b5,be04e576,be120f7e,3f59a9f4,bb161546,bf908a3e,bfef1776,bf83b7b2,3e0a89b8,be80edda,3e876393,3f1b5472,3ee98b4f,3d8657df,be49a2ec,3d99226c,bf86e7bd,3f4ab9aa,bf0b7cfb,3f55a483,3f2ffb1a,bdb8bca9,3e99aa8a,be98da44,beb4dea4,bf151627,3f787b1a,3e7f7128,3e5d4476,be374291,be67f78b,3d0283f1,becee545,bfb3a7a3,bfb9f0fb,bf98da5a,bf741ae4,3e8790b0,3f8ff9a7,3edd82ce,bf605926,bf89e14d,3e1b973e,3ea833c5,3ef576b2,3f167422,bf3541ac,3f614bd4,3f2ba5c9,3f4b2ae4,bd84b9af,be18fcf7,beae0a8e,bf602f8f,bebd86b7,3e64b5af,3f138197,3e04ca2d,bf201412,bf896a2f,3ef390b2,be1b5836,bed84f1e,bf1a09d5,bd146c22,3f279c7c,bf077df4,bf06c60c,3ef7f8a8,be4a2acb,3e511600,3e836775,bef8a2be,3ebda1ea,bd3faebf,bf70cfa1,bf268ca4,3ef93594,3e76227c,3e8efaec,3ee04bed,3ec44079,3e9340bd,3f75449b,beca3471,bf32823f,3f1729e4,bf3072c8,bd5f3895,bf267b76,3dfb5ffb,beb2e392,bf1f1b85,bf8b2a59,bee40597,bf47cc3b,bf4ddeb2,3ef1baa1,bfb1410a,bda3619f,bf4ea675,3f5db93e,bf029efc,be065978,be0a0d0b,bf3a4c94,bdadc517,bf36b37c,3f0e3c74,bf803c44,3f388724,bf44f860,3f780361,3f168ea5,3a93f75b,bf9548f5,bf7bfdfa,bec37f17,3f36d818,bf8b9bf8,be9b7a55,be4f8762,3e931e3a,3f46d9fd,bf0326a5,bfc0160a,bf9edc12,bf3ed2e3,3f41e683,bf56bd95,be9ccac7,bd1827eb,3f690217,3e30872e,3f087331,baf338ec,bd448f34,3f376728,3c4d07d8,3eb5d1b6,bf84d2e8,bd961376,bf969cf9,3f2eeab5,bf43382b,3f5a79d2,bd9a2ec5,3dc46be4,bf08c4cc,bf0252e6,beab6bcc,bf4199ed,bf8f154c,be20c549,bed019a6,3e725c60,bf8f9d64,3f2696ce,3f5b5380,bf3e32e9,bf60379f,bed42612,bee4aff6,bd116076,bf30c6e9,3e9326be,3f29e181,bf0ad5b9,bf8bd598,bf5f1464,3d8d76e4,3f153a5c,bf287bfb,bec3f6ed,3c40a9df,bf6e7996,bf4e601e,bfb4aab4,bea7ec17,bf067e3b,3e00ee09,bfaeec74,bf82d001,bf898fc6,3f0a64ce,bf0aa3a2,3ed191a6,bea0a134,3e94fa4f,bf021778,bf3060aa,bef00009,bf15ea2e,beb68893,be706c77,3f108813,bf56e421,bd5347a1,be29af37,3da2d55f,be914231,3f2781be,3ecf0b1b,3e4ff76e,3e43c93a,3ebb5678,bef45649,bf47cfae,bf66ca5c,be7bbaae,3ed7a8c4,be52ab30,3eaf2692,bdce36de,bf7bb286,bf54edda,3bec9f18,bf5a6107,3eed7222,3f7a1066,bed9d21c,3eff6a60,bf2c71b1,3f40f1f9,3f4d2bbf,be876f2d,bf3be90d,3cbc82df,be759cb2,beafe7dc,3d57f77d,3e49b7c8,be0b5c2a,bf18f2ba,beacc875,bf80ba70,be822ee5,3f0c0858,be59c115,bded8d1f,3f04cd4d,3e08c707,befdfcc3,3d9abe80,3f15b1ff,3f0d36be,3eb39f2a,3f0c5d39,bf668822,3f146e0f,3ea2f902,3e33930c,bf4b5638,be780d64,3f268ae4,bf06975f,be914fb8,3d351093,bf1acbeb,3f08be21,bf36eb69,3f69f413,3f6f16dc,3f42efce,3f10b992,3f80186b,3efda3f6,3eadabc0,ba2607b0,3f795a3e,bf4e77a8,bf60f185,be8fea92,bf600956,3d98a110,3f164e09,3df329db,bec42ade,3d5ce629,bef7a4fb,3f09fe12,3f28a566,3efcb1c3,bf05add6,be6fade2,3ec2558b,3f75f289,3dd99214,3d2f000a,3de627cc,3f6a744a,be3cc50a,3f40091a,3f2ffe47,bef00ab1,bedfa3df,3ea02512,3f067365,3f3dee0e,bf04e07b,bf093075,bf77b4ed,bee56d2a,be0a24df,3c74c429,bf1393ee,beac0b92,bc7727b1,3c8604c0,3f8d5dfc,3d275b34,3eea2b60,3ed5aadd,3f95ee4a,3ebc7d81,3f361172,be551f6c,be218f6b,3d6290b0,bebe87f7,3f84bd5b,3f165793,3f01b66a,3f22df9c,3ed9b17b,bf1dc6c7,3f09e185,bed55cbd,3e0a710b,bdfb6e0e,3e82be40,3f0b652a,bf413491,3f5a410c,bf554395,bf135565,3d8e0430,bf4216de,3e4844a5,39d2c589,3f56c9f8,befd4a18,bf586061,bf55e509,3f3098ce,3e4bc54f,bf2c0b43,bd0b0ee6,bdf135db,3e92ea26,bdd3a6b8,bf5504e0,bda5b407,bea21217,be22d286,3cb2f2bb,bf7e6aee,3f2d5caa,3f57b1f5,bede42ee,3f6b51b1,3f63194a,3e87f102,3f0638b9,be770b7e,be71c653,3da3f79c,3ef335c5,bf6ef13b,3f465687,3e8eecda,3f558de4,bf67c407,bf302a98,3e2fb37f,bee6037f,bf5e83eb,bf065135,bf1eb602,3f1f1eca,3f3e64f9,bf6a913a,bf34b6c4,3f14d73b,3e20ed3f,3ebd1663,3e867105,3f05b4f5,3f7ac7f7,3f6a4d28,be76692a,3e587efe,3f75f7ae,bf092558,3e3354f4,bf2ff451,bf554334,bf1e4401,bd9bb3b9,3f5ae2f3,3ded7490,befd5153,bf1cdf75,bee2bb05,bf42cfe9,3f6df905,bf613c15,bcefe2c0,3e56526a,3e99281e,3f68cc5f,beac1fd5,3f387d3d,3f413458,3f75f863,3ea25928,bf0e44fb,3e8aaef6,bf65fd0b,3e832b82,3f02a9e4,be9092ca,3f02598b,3dddb7da,bea8d5b5,3ef2f771,bf102bf8,3ee5bb33,3e8e1a8f,bd968a6a,3e846f43,3eead133,3ee6ff8a,beb5b11e,3d68d5bc,3eff13cc,bf121567,3eec6607,3f56b19d,beee2485,3d5d18dd,bf4c0bf6,bda0b3c1,3e91eda0,bf642606,3eec4bb8,bdf20816,bf3a9276,bed1b1b5,3e3ecd18,bf50b158,bf348c0f,3f1010a9,becd6a4b,3f3a2549,be2d14e6,3f172c17,bf5dd5e9,3f2073e4,be61f9c2,3ec60da5,3eea8de5,bf88474f,bf477995,be4205c7,bf456d0f,bf4f3edc,bf623438,bf6eae47,bf02f347,bf1d2e83,bf49b36f,3f6d65d1,be021790,3f0ba9cc,bc257de2,3ec802e9,3f7dd14d,3eb9e80a,3ef04b90,3f5acaf6,3f983aaa,3f3c05f6,3f07e792,3f9f2b48,bec42dc2,bf380a6d,3f171617,bf7e4c30,bf859f47,3e8cf92c,3f01673b,bf4339ce,be4377f0,3e7d1fe2,3f742cff,3ebe5e78,3f10e94c,3e76a57e,bf23e398,bebf03b1,3e9ed444,3f00280b,3f8061e0,3e8a7254,bea7900b,3f80543a,3f8a9d78,3effaf72,bd29338c,3f013b77,bf1ea315,3f52c988,3e2fbf71,bf23f346,3d17af80,bf37326d,bf76753b,bf0add97,bfa49a5a,bedf41eb,bf4aa87f,3f592123,be0199ef,3e5bfceb,bf107820,bf12cbb5,bf3cd57f,3f03fe5d,bf34ebc7,3f377917,3ef906ae,3f545407,3e09bdc1,bedf81ab,bbaaea94,bc944fa5,3e441613,3e3d4b41,be6e9f04,3f4de5ed,bec4edb2,be620ae1,3f050512,3ddef708,3e34396e,3f00c43c,bf773443,bf8e820b,bbb0a20a,3f409c7d,3f5fec6a,bf3b1caf,3ee42716,be57de99,3e9ee2ef,3f8495bb,3f52032d,3f767146,3f3e295c,3fc7b3bf,3eb503c9,3dfedae6,3f8a4bad,3f3cc05d,be7af54f,3f3a6835,3ef5d058,3dc7f47a,3e15fd1f,3f867487,3f19786c,3f3720c7,be810f04,3dc44c68,bf0c257e,3f2cff08,bef050e4,bf35f431,bd1d5971,bf69ec78,3eb87e2b,bd6bce47,3f81b0ec,3f879d78,3f813bcb,be8231f0,3f46eedd,be985f4b,3d5a0fed,be0b104f,3f22b75f,3f296873,3f174030,3f950ec4,3f9bb4ea,3f6554c8,3ed263b4,3e43e540,3f7c1af3,3ee2db76,bebf20d0,3d26feab,bf05c97d,beee1b96,bf05147c,3e8e5313,3f0d7171,be9517c7,3f5b6e54,bf26b989,3eb8d267,bf32fb3f,3f5471c5,bedb0b88,3ea5325b,3f0d92fc,3eb2ea53,3f082094,3f3a016d,3f95e4ca,3e00c191,3f8969c0,4018dd52,3f5d6ae0,3faa7495,3d676ad4,3dbd6156,bec6bf65,3e8055b1,3eaf73a1,3f43b32c,3f14d2a5,3e342a1c,3f158f48,bf4c13bf,bf28b3d5,be986b72,3ea2bab0,beb1854a,bf0cb07c,bf4f2d17,bebde8c9,bea10d04,3f277e6a,bf868990,bf7cded2,bf4fb6d3,bf8d18e1,bf6d0c0d,be65e046,3fbae452,3f2aca3e,3f5b2775,bda4364c,3f9d7ea4,bed268f5,3f757edc,bdaab9f4,bedf40e7,bf071e6e,3f51a558,be689f11,bf5844a6,bf23656c,bf402a60,bd0208b9,3eb4c1ac,3f64c529,be994721,bf466d67,bfaeed8c,bf7e1bab,bf7deaf7,bfc63789,bf51a458,bf47cfb7,bfac1ec2,bf8fb951,bf1547f8,be9df71e,bf0fe185,bf9223b2,3e42cb09,3ecf897d,bd9e8974,bf7677b1,be622270,3e3ac177,bf413328,3f164390,3e42716d,3f2ebd44,3f3abd4e,bea01a0e,bc976b82,bf0ab4d2,3c93f4c1,be4fbd20,bf2ff2bd,3d8ef082,bfb9d130,3d93ae1c,bf4d7e63,bef429c1,bf9c1cc8,bfe8b3cf,3debc6c4,bf592177,bf351a15,bf03e551,bf233108,bf6ce803,bf8ae488,3d9afac1,be0fbf0f,bce769c2,3ecc849e,3ea9a89c,3db59432,bf116c4c,beef1e47,3f5cfa41,3e79fed0,bf3fc990,bf55f289,bf332ddb,bf988a2f,bfae075f,3b7f7a32,bea94108,bf88ce94,bedf83f8,bfb7a76b,be4c5fb8,bef3a4bf,be8fffe4,be608202,bf63e109,be359163,bf5944b8,be030204,bfad2d0b,be96dc16,beb6ed42,bf0cdad9,3f2654a7,3efedebb,3f347c20,3e02563e,3f304c87,beedb847,3f11e14f,bf9441d5,be2b23de,bfbdeb2e,beedf67c,bf4698be,bf096179,beaadfd3,3d767408,bf8de1d7,bd788f7c,beeed495,bf42474b,3c01869d,bd73b888,3e122694,bf30ac1d,bf8ce501,beaa080b,be18ab4d,3d2c6a44,be2ed133,becb96b7,3f808e27,beb979a6,bf79f7f5,3f12a5ef,bf4a94c8,bf1323c8,be9298e9,bf053a33,be02b344,3ea59998,bc7e124e,3d5a1ca1,bf967bb0,bf6948ef,befeab30,befe5a76,be11eba1,3e456fe3,bfa03dee,bf93b986,bfaecf23,3e1e79ad,be673a1a,3f294c71,3e8d73fa,be8cbcad,bd78bf0e,3eaf4369,3f24fe28,bed0e787,be8abb8a,bf3a340f,bf3447d5,bf7f8c16,3f3989c7,bce7dca5,be4c07e0,3e49396d,bc5183aa,3ece65ae,bf81a144,3e8833ae,bf8a81f7,be61947c,be4e062d,bf033aa5,beccb9c2,bf877757,bea0fa78,3e560a4a,3f0e0926,be4287c7,3fb02245,beea063c,3ee7f644,bf6a8b81,bed07e5b,bd5b1caf,bf07d300,be69d334,be976989,3f0606d3,bda15a9b,bf6e3664,bf86659d,3e5b2ea9,be624191,3f178e2b,3ee1b17a,bee83d19,3dee3590,bf5aade3,3e8f6a2c,bed133b5,bea36a4a,bf079002,bf17655f,be92a1da,3c9cdb34,be8cace7,3f485a22,3ebccdd7,bdfc8dae,3f2f2f5a,bf085c0b,bf26be90,bf3fb4c9,bd4c8546,3f11ad91,3e6b2542,bd2943bc,3e4b9514,3f12ae7c,bf6abce6,bf26e4f7,bf0897bc,bf97dbf3,bf2782e8,be970855,bebcee62,bd49d8bb,bf9a871c,bed41606,3f58d59d,3f8ae99d,bf16cbc9,3f738260,3f38a405,be7414b0,3d3d0883,3ee0afdc,3f025f1d,3da7229c,3ece98a4,3f6456ed,3ced0ef2,3dcb8ad9,bf1f0a65,3f4a58de,bf2c3e81,3ea79b2e,3f45cc88,3f153b72,3e86296d,3f2d0c3c,bf9cc973,bd32c214,becb5350,3df7ea6e,3f985d83,3f6872b3,3f3300f0,3e161c02,3eef990e,be111628,3e01dc1c,3e406f83,be7137b1,3ef08910,3f40318b,3ec95606,be8c09ad,3f3a2be6,3e7fb5dc,3f276547,ba87a15e,3f9e9606,be0dd603,bd606a25,beb418a7,be82cfd1,bf009db2,bccd05dc,3e382195,be4e20f7,3f79f843,3c8ab5cc,3e8cb906,3f3b8e7d,be9cc22d,3f94591d,3e4d56fc,3f99311a,3f83e531,3e4c080f,be4376de,bea488ce,3f742c80,bf44808f,3e455f13,be4edd17,3ecbd922,3ee47982,becc5730,3f2ab7aa,3f4d2d6a,bf160ced,3efe9a50,3f14dc3c,bf2125d6,3ee513fa,bf1e768b,bf25ce86,3e199d92,3e8d96c2,be998499,3f6c7447,bf0eac02,3f81fd8b,3f580313,3f16510f,beadcbb6,3f3b294a,3e120940,3f121e63,3f7db775,bf5a9e50,3e0f44aa,bdaa7c40,bf06c341,bd83c1a3,3f258e1f,3f2e5f3a,3e1efd0f,3caea151,3e6efbb8,bf3f7738,be3cf606,bea91769,3d3ed8dc,3ee2c5a4,3ea5c7c6,3ee45bf6,3f09ded1,3e357fa6,3e07d612,3e1082b5,3d991ece,3eba819b,bf442583,be8ea5a3,3ddb8c12,3f104713,3eb497b8,3f6f0efc,be0d30bc,bedd2673,bedb6fd7,3ec80896,3e0b910a,bf1223a2,bebad817,3f9e4811,3ea647b0,be72e5dd,3e17a022,3f7c877e,3f77d6b6,bec07639,3e86495e,bf3598f0,bf26998c,3ed60309,3e772a80,be71fc9d,3f4b33eb,beac3d73,3e836f35,3f2df7ff,3d3e46bf,3eec8089,bdbc30d6,bf13d4d7,bf1009e9,3cf03adf,bed778c0,bdbc6fc9,bdfd79fc,3f1be18e,3f15a529,bf055a4f,3f961405,be920441,3f9dd505,be92a940,bedcefea,3e6fee50,3f607f7e,3f77f584,3f33d867,3f014c64,3e042826,bf02e1b2,3ea16e0d,bdf2e3f5,3e26359f,bf83b1ab,bf5ae112,bf642f14,beaad525,bebdf743,3f2ec174,3dd0cf13,3dac48a4,3f482a7d,3f124f1c,3f2de5f2,3ef3be8e,3db1fa02,bf02ae1b,be50f3a6,3f3ae882,3ed8c6aa,3f784e6b,3f1c5379,bec76ba8,be5aa5e5,bf382610,be8d7c89,bf148db1,3e775f9f,bf05bf5c,be806c16,3f119540,3d71e3ab,3f52fad3,bf577192,3f18e4b3,be83d0f1,bc82d191,3de0cbdd,bec6876b,bef1610f,bf36e102,3ed69ee8,bef45f26,bf37b4b0,3e6a0b0a,3f738cda,bf26e9c2,3e0b6801,3d5a0fbd,bf3e1410,3df6518a,3f57b4c7,3f4b5b97,3ece62f5,be0fb330,3e7ee552,bca6f22a,3c97e72f,3f1dc01d,bf383d6b,be27191f,3e112255,3ebae4e3,3f3d7cd4,3e570a0b,bf625c22,3f44fc0b,be097464,bdc00bc1,bf077a65,3f7889f6,3f724f46,3f707fec,bf0e0b0b,3e48ca87,3eae5439,bdc50139,3f2cfe47,3f5acda0,3f6e2f52,bf6e7d1d,3ee09c9b,3f6462fd,bed71ba7,3ec33454,3dbc5f29,be07d2b1,bf17673d,3d8697a9,3dd7545a,3def1d5e,3f7e9f0f,bf6ec0ab,3f1032b4,bc734611,3f063198,beea89f7,bf34ab0c,bf6ae5b7,be26878c,3e6657b5,bf5977db,bed18d09,3f51a1ae,3f21276f,bf453288,bd5c2de5,3f4ec652,3f3c50c7,befc4ca4,3e8eab10,3f2191bc,be94860e,bf4cb7b9,3f2af642,3d15e8c4,bf6b3782,bf424e81,3f311e47,3f3143f8,bdfd971e,bf4849f7,3f0624e2,be2b2e4e,3ee27079,3ea59f64,3f3d4177,beebb224,bc0b6b0b,bf325bd7,3eded8b3,bf5fa40d,3eeca7f3,3c330189,be6659fa,3f3e875e,3f81b43f,3e22d6c4,3df43131,bdc50ca9,3e0f7dbf,3eb85e5d,be8bb5c8,3eb56a03,3ed09139,bf052491,3e681873,be9ce837,bf6552cf,beb99cbe,be0924ca,be966d47,3f205992,3f5d725f,bf39e61d,bf2e07d7,bdbc0940,3f08edc2,3f290b8e,beb74cc0,bf0f9bbe,bdad9061,3f48be68,3edf4f87,bef010aa,3f6d7abd,3e0dcd96,3ecda8f6,bf2e2341,3f19d16c,bd2ca8c5,3f3e1fae,3f21ea7a,3ec72936,3f34d587,3f19384a,bf62c514,bf6e3c2c,3d08820f,3cb18eeb,3f732f9c,3e18825b,3d99252f,bf157368,bf4beea7,3f514459,3d7281f5,ba97415e,3f6a130b,bd9af0d1,bec0efb1,bef22ab7,3ec4df4d,3f5c823e,3f2625ef,3d289bf4,3f11f256,3e5d86af,bf3328d8,bef5d09a,bdcd9f1d,bed80346,bf2879cb,3f0e49b3,bd88b2a4,3f60eb29,3d0c9843,bf467e56,bdc4eaba,3f48d4b6,beabf107,be8169b3,3f11a5f6,3f8b4943,beff728d,3f530513,3f611513,3f9ff96b,3f0897d2,3f63190f,bf3d77fb,bdeb312f,bf303267,bf0a4c54,bf1befa6,bf5d1c1d,be88b05f,bf4156b8,bf5989eb,be158808,3ed2910e,3ecd5973,3f2875f6,3eb64757,3f479ec8,be525bde,bdac2997,bedcd1b7,3f038229,3e75ba84,be9ea390,bd841043,3e22b0f0,3e29916f,3ef3a59f,bf1b0e47,3ef4cbc7,bf12571c,3eaf4759,bf78f05c,bf309d62,3eb8fe5c,3f0fdc0a,bf89e25c,befb2cbc,bf7536d9,3ed64172,bf400fd0,bec0a885,bda6615f,bef04a7d,3e2c5df1,be64e455,3f4094f1,be0f8981,3f563ea4,be8327e4,bf250303,3f360bf4,3f87001d,bf0ce85e,3f40fe53,bf30d889,3f6e23cd,3f908466,3e1c5892,becde42e,bf14a8bd,bf61f93c,bf6fd053,bf62ec49,bf7f901c,3f023e09,beb9ad3f,bf5564fc,3da5c532,3edd684a,bec591af,bf03930c,3e7cbf28,3c8d6072,bf2d156e,bf826f7b,bf57a4ee,bf4ef445,bf56ec73,3e05ffbb,bc3cb0c1,beb3bb36,3f3c501f,bf0a67f6,3eaf4b96,3e9ddcf7,3f2dc9e1,be364309,be467fdf,3d9340a0,bf0a27e5,3f75a4ec,bed6a215,3e850a2a,bf5e569f,bd1fe1fa,3f0a3523,3f75381e,bf04098c,3f66e20f,bed0023c,3f4b6ce2,bd2f18fb,bf7f199d,bf48e2b0,3f1942de,3d6b68b2,3e78ffa3,3f151eec,3f2d5295,3e943d18,be373bd1,3f38b654,3f0017e0,3e398d38,bf12e690,bd937bdb,3edea479,3f091aac,beab198e,3f785973,be587e63,3f637ee8,3f999679,bf339beb,bee4126c,3f09dfc8,3e9fbf8a,3f4f2c7c,bf73010e,bf46e3cd,bdb5134e,3f079975,bf506c1a,3ec878d4,3da5f756,be8f34b7,3f17b828,3f1de932,3fb12247,be55d8fb,bf0dd31c,bf22c7a0,bf9f99ad,bf318344,bf4197fe,3e3ff6e0,3f7cef02,3eb358b0,3f1190d3,bc87bf0a,3f8ce46a,3ea39a35,3f31773a,beaf41af,3e2a958f,bde4de0e,3f74fc50,beff0e5e,3f285f17,3e37251f,bec38d87,3f14e1fd,3f11e926,3f8756e3,3c1cf108,3ff1cf10,3f92c569,3f4de906,3f2acce7,bf52a475,3e925687,3cf5bff6,bf931807,bea43d99,3f8c9a5a,3f577ac9,3e000944,3ecfaf79,bd24094f,3f04a1ff,be924bfb,3dc0fbea,bef055d0,bf2f6197,3e0e7b22,bf56f314,bded4e62,3de9aee1,3f3848aa,bea62932,3e71f33f,3f0a74b7,3f829ab5,3e7ab020,3e3d2ca4,be59b5e4,bfbfa6f1,3f0d6b35,bf1893ad,bdf2af91,3eb922ee,3e5b8811,3ea96914,3f332ef8,3f373629,3ec60509,3ee42354,bf0b4530,be3419a0,3f807cd7,3eb42c69,3f1ed4e6,3f35bba7,bf6ce982,bf0765af,3eb164bc,bec3d9ad,3ed8ec44,3e1ea34e,bf49ba67,3f59b6ee,3f877340,bf08e426,beb4730a,beac199a,bf01c8eb,bed9c2b6,bfa5d2a8,be3edfa2,3ef70a35,3e08deca,3f60bb6e,3f0bc67b,beb756f9,bf1213c9,bef1f6a7,3e97eabb,3f84015f,3ee9d568,3f118701,3f806f4a,bf4bd776,3e97b397,3f3baf94,bf4a91cd,3eb56819,bf0416d0,3f558e2a,bda5c810,beb85268,bd393efa,bf1a0c95,beb0ada9,bf5fb8fa,be059734,bf4f472b,3ef0efb1,3e2cfa03,3d5190e9,3f08274b,bf7439a8,3de527f2,3f575526,3fa0a5e4,3dcc22ed,3ed6bf89,3ec27664,bf23cae9,bf4ada91,3f4839ed,bf1e190c,3e22d590,3f70266a,bf401ece,beb023fe,3f59d983,3f8f6f02,3e8e72eb,3ee363b8,3e361b17,be41f8d8,bf465769,beecb1e5,bf4f5c01,3f7290de,3e6dfb7c,3e5dde3c,beccd814,3f4901af,3f9416c9,3cc5728a,3ee1872d,3f266ca2,be4a9608,3ed6911c,3f2c6fb1,3f22ac06,bf28d6c9,be867814,bf5d1813,3f22efcf,bd92826c,3f1e5fab,bee900df,bf23966d,3dfb977f,bf21f496,be0226fe,3f223765,bf4cd68f,bea9da35,3d433638,3f579fdd,be991898,bf6145a1,bf824691,3f157f04,3f696642,3ee7b434,be16f98c,3eb8be1f,bf2ac66f,3f1b2a73,bee738c3,3f74974b,bf0771ed,beb2abc4,bf3f2bd5,bdaec632,3f30b82f,3f445428,3ebcc4dd,3eabac3b,3e91f59d,bed3d11e,3f42096b,bf2efed7,bf47b3b0,be2547ae,bf29b7bf,be9bdca8,be0788cf,3e3772d0,bc3d577d,3e8f27ad,bef07f4b,3f0313f7,3f488642,3eb37257,bf308e62,3eeb768e,3f3b82e2,3e4ceb50,3f0260ad,bf28c1c6,3f5e3a07,3f486e84,3efc0c10,3f8c8b3c,3f45ce21,3f45236b,be0ad1c6,be487328,be3d0b09,bec2934e,bf5cdbe2,bf45166e,3dbe2abd,bf2fb557,3d9ea31e,be800892,3efe48c3,3db7ad62,3f834d96,3f07dde1,bee7e630,3e81cdd1,3f40b5d8,bf06e33e,3d924e1f,be9575c7,befe2bd2,bd921072,bf1fa031,3ec434b8,3f869d85,3fb8539a,3cb49c20,3e8abc40,3dfe6cbe,3f2077d2,3e891f9d,bf8d5f63,bd8d4a32,3ec0e728,3eb47dc4,be7821d6,3e3a8740,bf2a16f7,3f1e9865,3edfec08,3f9aed1b,3cebcdda,3f50b0b1,3c42e27a,3ea93ca8,bf2d05a5,3e67dbf3,3cccaae2,3f2eda9f,bcd10bff,3f057a61,3f824d0f,3f922ff1,beb5661e,3e5b44a9,bddc4033,3fbbc6b7,3f954436,3fb32fcf,3cf7caaf,3f01ac77,bf590b79,3e0b53ff,3eedd4be,bf85ccd0,3c845269,3df752b9,3fcbd17d,3f4d2ff8,3e80b235,3e49693e,bf39e227,be72588a,be931222,3dda1ee5,bf5c16a9,3ec2f225,3e02609e,3f337650,3f8749a7,be1032ca,bf1dc0c6,3db8917c,3f85028f,be4709d6,3e6aeeea,3f6ec397,be6c424b,bf5830d7,bf5451e5,3e522c5e,bcee9e8d,beea900f,3f6bad43,3f2cd5c3,3f572278,bec00145,3edcb6f2,be845f48,3d9dc23d,3d05fe6f,3f0e2a06,bf2934dd,3f3171e5,3e782775,beecc096,bf33dbed,bf8e584d,bd980136,3f753aeb,be747403,beab9bb5,3ef23a68,3f00879a,3eb77b5f,3f211bc3,3f5a5739,bf2eb07d,bdd8cb4f,be9fb0eb,bec59497,bd843006,3fc65200,3f074d96,3e2acb3f,3f27de02,3f6499ea,becc6128,bf7805c0,3f7c6841,3e3f56a9,bf7406e7,3f0ad260,bf18f612,bf6f1371,bf41c49d,3dcdcf3a,beb33ca6,bed99252,bde7f755,3f1ad7a0,3f0301ab,be6b049b,bea726a3,bf5e334f,3f27ada6,bf72f71f,3ecff21f,3f3e4a2e,3ea9777d,bf45b50c,3f4a4aba,3ebf6846,3eed8988,3f38f3b6,3eff0e2b,beaecf85,bf1ce3ef,bf392b3d,3f7d4903,bf4b0997,becd9d91,bf33efa0,3f04eb23,bf04b414,3f044775,bec61c58,beca4e05,bd1dcb91,3ee2e84b,bda7b6cf,3e432de9,3f619a0f,bed79fb7,3f0209cc,bf52ab31,bea6ec6c,3f31e110,3e9faae3,3f22ae1f,bc7419ef,bf48d165,3f7a2e2c,be70a1f5,bf1c1b2f,3ee8963c,3ec9c137,bf5d8252,3d8d8c83,bf3cc22a,3f1bee06,be732048,be16d847,be889ba9,3ee323e9,3edb58a0,bf3370aa,3ea0f4be,3f6c8961,3f799511,3e8b5be0,3ee7f704,3f5ca8c7,3e863b2c,bd4a0fa2,3f3db098,bf30801b,bf264107,bd30faad,3e5b8e90,bf7ade12,3f5a633c,3f34cd11,3f4f38d7,3f4e87a0,bf39761b,3f1a8e60,be7f8f60,bf401115,3efd42a0,3e7e64c6,3e0d1981,be928e46,3f1b112a,bb6dfdb6,be4cdb7b,be328879,3d9bc2f6,be3261ba,3f973653,bf060d89,3da6faf5,3e875f62,3f3e9187,be08789d,befa6574,bf538f7b,be98c989,bf7c849b,be90ea3f,3dfc49ed,bd35fbd5,bf02a66a,3efb88ee,bec5f760,3f5089e5,be944354,bd9a08a0,3f774fcb,beb0c1d0,bf377c79,3f24691a,3f20d666,3f3d6ede,3f13de6e,3f194c14,3f7eb9c1,3e637ff0,bf3b6b25,3f5b8dd5,3eb87f15,3ebe4de8,3f800cf1,be53a718,3f2ab672,bf21acf7,3e8ed207,3ed753ec,bf68e89a,bcf43db8,bdcada53,3f15f490,bf3651ca,3ea631df,3f13763c,bee1796d,3f60aee2,be8da378,bf328b5f,3f6302a2,beb553dd,bf2cc74e,bf74443d,3d90d5e7,3de216ac,be3dce2f,3f498a68,3ee308ef,bf5c461a,3f6a1b4a,3e8c421c,3efeacce,3e90c1f7,3f67286a,3e858681,bf3bf3d6,3f0af9d3,bf268019,3f2cc746,bee1e4a3,beacc33d,3f39ad93,bf4eeb3b,bf29c75a,bf637915,bf03ae3c,3f12c26d,3e56583c,3ee49307,3f4c6bb0,badaf677,bf6cdd2b,bf0a0a7d,3f220445,be15c6db,3f67a92a,3e31d393,be8ed40b,3e29e1d4,bf3bd254,3e3ae92a,bf2c2414,3d093991,3f2e020c,3f4b74c0,3f7620ca,3f76114e,3e9a68ab,bdf450af,bf2d360b,be29e584,3f1a4c29,be5c37f2,3f2aec3e,bf1e6bd6,3f68463c,bf5c0f4d,3dfc1926,3f223362,bf727b8b,bf4ac9b7,3e89d739,3f0b9ce8,3e5538f9,be3c4a73,bed9b9fa,bf218a16,bf576832,bf76c5a0,3f14e1b8,3f06f0ee,3f356bca,be497a4a,becdfd54,bbd37680,3f4ba4cd,be26c1a0,beb0beba,3eea4e55,bca83385,3ec172f9,3e97d082,3eb2b20f,beb14f9c,3e7f1180,3eb128b8,bf3c3409,be959b1a,3eca95ac,3b31dae0,3f15dce6,bdc7233e,3edba227,bf7fc83e,bf12bdb2,3e1e68a5,bf06dd80,bf559e62,3daf51a4,be8263cc,bd92a1e9,3e8866a8,bef59a13,3f1a4304,bd84b38f,beccbc57,bf50ba33,bf4521ec,befdc7d4,bf5bd989,bf641648,3f424fe7,3f6e55aa,bcc1e7f4,bf0a7b93,be5e7b50,3eef1562,3e8fcf00,bf6dd463,be92e5be,3ed5f608,bf39fa72,3f2a0f90,bec977c7,baff723d,bf5bf4b6,be6700a2,3f760fef,3eaa40c5,be7bed75,bf5d2258,3d563e66,3e8dd7fc,3e5ed2bf,bf5abc8b,3f1e8bc9,3f32c76f,bf6c51f7,3e8cf4c4,be432010,3f7cadbe,3f5cdad8,3ef00fd3,be6bc4e7,3f2f7d76,bf16a31f,becb9b96,bf51729b,3e082bc6,be3593dc,3eb928ce,bf04537d,3f676f50,bf09a63b,bf1310ea,beefad2e,3f423d4d,bf3f7f33,3f29656d,be615ee8,beca599b,bf291ed7,3e739c5e,bf42f263,bf3062b0,3f4e7b04,be249402,bf077e3f,3e9914bb,3f21bc4b,bebdc75d,bd75b311,bf88474a,beb2ecd5,3ea294e2,3ea91c5c,bf850c2f,3f42e4c9,bdec320a,3dbe74ba,bf16d98b,be8ddc2f,3eb7a9da,bf15872f,bf676120,3e5d1354,3e2e1280,bf2b3fe6,3e883f2d,3e665fdb,bf25a59c,bf58c73f,bf208ced,becd9cdb,bf740137,bede5344,3f21ab39,beed1b27,bed506f5,bddeb729,bf695ea6,bf487cf4,be070cc0,3e1541d6,3da1b17f,bf09e80e,3e8d5cd7,3f7d9085,be63ae29,bf4e58ce,3f12ffc4,3f2411c9,ba57eddf,3da6a255,3f63e7f5,bd68897d,3f2bfd5a,3f226b7c,bf01ac3f,3e0f748f,3e78669c,3cd7e3b3,bf7f6716,3e24ce5a,3f7d1152,bf473411,befdfb66,bca3cf10,bf5a421c,3f343202,bf702e4e,bf7628a5,bf617f88,3f69f1de,bd02b35e,bf5f6442,3f34255d,3f3dfc74,bf46b947,bf2ddad0,bf00461e,3e111fec,3f2714c4,bd4149b4,3e8d1837,bf3fb9c9,bf123695,bf3ea431,bd8847fa,bf433dec,3f340849,bf193da1,bea1af40,3d08b04b,bee19916,bea49267,bf301abb,bf46b742,bf742215,3f0cbae8,bf0f83d0,becd5ec6,3f37d18e,be9dc832,bdfee63f,3f31dba4,3ecc7c0a,bf722df1,3e746e50,3f058c30,bf62e4e0,3dfc0d1a,bcb2ec1e,3f7211c5,bda800d8,be8a49fd,bf116a44,3d28365b,3de4f5ec,bf2d7108,bee7582c,3e820cc3,3eccdc04,bd92acd8,bf65dda5,bf1fa03b,3f26b300,bf05e53e,3e09ad63,3ebfb856,3f233579,3eb76bdb,bd1b6b12,be0c0d64,3f4d6ab1,3ee42ed9,bec40d01,bcdd0805,becb509d,3f1b2c8a,3e0bb4e5,bf295300,bed37cda,3e3ecf57,be1e17f1,bf07107e,3e7e4c66,bec3d758,3f1d902b,3efeb17a,3dcafd37,be573f00,bf3827e8,bf7e4e87,beeeffbe,3ebf01dd,bf622895,bf2acd5b,bf5c3aca,be8eba08,bef801e6,3f5c0aea,bed717a0,3f53d863,3f6f2b69,bf14fe47,bf0e7ed6,3e8fcbf1,bf193368,3f134bdd,be79d348,3f3b659a,3eb6c704,bf440ffd,3f5416d6,bf716488,3f341884,be45ad76,3f43ef18,3e0e2349,be4c7127,bf1bdd44,bf074851,befb6c6b,3f496d8a,bdb7aa14,be431c02,3eebb6de,3f1d0328,3e0b6d4d,3e327339,3e7bfded,3e38abf2,3eb2e74e,bf6320d0,bf02b7fc,3f0d103c,3e9bf493,beda96be,3e01d94f,bf4eee94,3eab9d8c,3eb3f4c4,bf82e1da,befb30f0,bd29b3ea,bf588563,3f3eb146,3d340760,be5c4135,bf0dad22,bf466f17,bf1c9e3b,3f2e4810,3e99bb76,bf52da44,beec02b9,beef0606,bee09768,bdc39ace,bf577546,bf247f53,3ed1fa31,be2992c0,3f32cf81,3dd302b1,3eb187cf,bf34b164,3e06fc7b,bf2f3042,bf82fcc6,3e89cdc4,3eea2fe8,3f2556fc,be8077d4,3f544356,3f50ba3b,be4d039b,be7dcb72,3ec61c91,bf2d5ddb,3ed54ef3,bf7ef9e4,bf7851cf,bf22f84b,3f038cad,3f504411,bf063f50,3f43c49d,bf132d85,bf58d8ae,bf7b129f,bf38ce7d,3e19b3bd,3ed054f9,3f40b455,3ef26fe5,3e1cad94,beb7aeab,3e23fbf6,bf9ba76d,bf8f88eb,3e93a300,3ef6c6c5,3f0868de,beaf0e90,3f127cc3,bf0c3079,bf29607e,bee38a4d,3f37f572,be89ac14,be97f0f0,3f2927ff,3f2945d9,3f06e76f,bf80ae62,bf337b04,bf4c4c04,3f76de3d,bed3c741,3f644fd4,bf69319f,3f396f38,be1ed6be,beff942c,be67eb32,be4e1e6e,bf730976,bf499fe6,3dc0629f,3f90a6d0,be24654e,3ea87dec,bf0325ff,bf32ad9d,bdf8c9c0,3f0d7452,bf5a071d,3f3f172c,bf444fa6,bf4dbd3f,3ec36468,3f49c5d2,3eb9c659,be94cacc,3f093f7c,be8b84c0,bf4bd370,bf26235a,be865c13,be3aabaf,bee78f7d,bdc086a9,bf4a42e3,3e9c0f7f,bf35cd03,be3a7177,3f2c3cf5,bcafabf1,bea07cc7,be905083,3f0f16ed,3ee877ac,bf13add9,bf347dfe,bf22e28a,bf79588c,3e787433,bd0ca2e0,3f4d8b6e,3ef7752a,3e4667e9,3f7a61a3,3d15e47f,3e900617,becb4a89,bf23d5d0,3f4dcf4a,bf567e09,3e707278,bf92a21b,3eb18253,bf4747c9,3e421323,3f859a10,be566763,3e608763,3f32868a,bca39cb0,bf728f75,bf3bc76d,be955c04,be9aaf10,bf0018ea,be76ad13,be87850b,3e75605c,bf264278,be940266,3f1cc32e,bf2759d6,bf2058ae,bf0f1c62,bf559511,bf445d15,3d600b3d,bf80acba,beb7baa8,3f42c667,beabf6a6,3ea7c5aa,3f0c0f02,3e599850,bf413494,bed70366,bf781828,bf1d2e6b,3f063ec2,3f3612f1,3d87921f,3f5e1f97,bf5ba514,bf805c5c,be174538,3f0c4d93,3f2dfcc1,bda8fcfa,3f5b844e,3e99fe1d,beab9598,3f1ec6bc,bf0a5eaf,be539fc7,3ecab1a4,3efd3534,be87d899,beee3323,3d2ead46,bed15605,bf0627c3,3e38b556,bf1c07b0,bec1d0cd,beda292e,3e4bd759,3eecacd8,3ed0dc38,bdf554af,bf12174e,bed478d1,bf0ad783,3df23df5,3f0e2ace,3e93c987,3ebc5fed,3e73f7f5,3f1ddc11,3f57948c,bf1418a0,3ec501a8,3f6b429c,be504828,bf7d37e0,3f3e67ea,3ea0c3be,3f5f3671,3e911f9b,3e49e19b,bf5013df,bf35cd0d,be5a8933,3e8c0275,bf4ea0c7,3e472904,bdb4a295,bea94b4f,3f163ba6,3e4fc5b2,bd29536c,3f60259f,bdc71be7,bf304e02,3f76d1a3,3d867dcb,3ee7bb49,3e894ee9,3e89f228,be00ef1b,beb7a16c,3ec28771,3e8b92df,3f1e1efe,be5f1374,3d4a23a9,3ef75b16,3ec0c177,bf873c8d,be663c05,3eaf33e2,bc48296c,bea6248c,bf426d41,bf3177aa,3e885e0e,bf39cf67,bef63d7e,3f4f61a0,bf240121,bf4f470d,bf7e304c,3dd96558,3eef66ee,be5be992,bf615a7c,bf27b22b,3c0f0f3d,bf4b8857,3ee53ab6,bef28b78,3ea07ee4,3f8496f3,bf197270,3f0f1035,bf5a71f8,3e84276b,bf371565,bf3c7349,be81436b,3e32b059,be8c3cf0,3eeecd7c,bf45b3fd,3f5f83d9,beed188e,3d9a9d29,3f64d430,bebb9f9e,3f689323,bf0b258b,bf66636f,3ea84df4,3f26f443,3ef54a96,3e8c3e30,3ee03b57,be0fec77,bd183f0d,be2895ba,3f8b4e58,3ecd7658,bdcf692e,bf17471c,3eea483f,bee8ea56,beb9a141,be979a32,3f58af6a,bf2ad44b,3f70df26,be05b993,3f6dc433,bf4a0657,3ef13255,3eae245b,3eb00faf,3f55db11,3e2443be,bf4128db,3f115975,3f219773,3e412793,bf72cd34,3f04d12d,3f60210f,3f14cc85,3f4ad547,3f3705bc,3c92bb66,bf6981e7,bf0b5837,bf4d979b,3e941918,be1f34ca,3e9e8728,bf79010d,3f4aba2d,3ef16b94,3f3b431c,3ebc67ae,3f034aa3,bc2644ad,3f59da7e,3f1c0760,3d8685ea,bed642a6,beaa9763,3ed4b311,3d0d4ce2,bf73d9a4,3c89f2e5,beb40d22,3f465262,3ed20d61,bef414f7,3eb5d7aa,3f57aae5,bf142ea6,3ed80417,bf28d881,be1700f9,3f7020ab,bf35cd08,3f7783ba,bf364899,be899756,beabee78,be51b352,bcc69805,bdc46e1a,3ebc88b5,3f15234d,bf74ad53,3e241f23,bf088930,3f19af9b,3e553933,bf72d015,be096fa3,bed0597d,bf55e4fc,3e01eb91,bf43c743,3f671cf9,3d554522,3eb55e47,3f09f9e1,be905456,3f1c7a04,be316fda,be0c919c,3f3ea8de,bf706ed1,3ddb6a90,bf5a9462,3e37dc24,be382367,be3b832c,bf54392c,3eccb5f1,3f5046c9,3ed0de1d,3e48b9dd,3f640826,be8a6f79,beff5603,bf00ef96,bf41da75,bf6af80a,3f711a54,3f7f68f0,bc91dc22,3db5b0a2,3f15ccc6,bf13cd21,3f320ad8,3f6838a2,bf0559ef,bf557e0f,be67f980,3f5f507b,3d34890c,3f6df6b2,bf382316,be2e5b88,3f60531e,bf035eee,3ed61c4a,baf8fbc8,be61943b,be8376a1,3e5c6264,bebf2a9c,bea8cb9b,3f540679,3ed3804e,be973699,3f0a1506,3f0e722e,bde9f4ed,bdfa0a80,3f2cd706,3f4f6115,bf6924df,3e90a6d7,3f7cbb17,3f2d67f9,be96c6dd,3f31f1a7,be31b8cc,3ecb30cb,3f30b449,bf54cd91,3e85dabb,bf739209,bf6c1e58,3ed3e4ca,bf120243,bf51fe18,bcaf08b5,3ecd290f,3c5bb4ad,3ec44764,3f550045,3ef9a0b6,bf1d9bb7,bdfb6baa,bf0bbf8c,bed50f84,3e53ba64,3ec379db,3ef1f208,be2c065f,bf49dbe0,3ea23bb7,bd385da3,3e832ef9,3f77a187,3dea646f,3f709063,3f21219f,bcae1843,3e3cb9fe,bf4b41df,be76a566,bf1b8f90,3f6da327,bd32638a,3ed714c9,3eb3e22e,3f1fc1a8,bf55dd65,bf48b8ad,bf64f763,bf06c794,3e83479c,bf37dad9,bd73ab56,3f0f0ab8,bd8a0d06,bf2faaea,3f29b7c4,beeda6b0,3ee0c691,3f49b364,3f7467f8,3f759dfc,bf5ba863,3ecfa64d,bf1b9485,bde10c99,3f7f1c3a,3ca8d451,bd5731b9,bf7d2055,bf3b1256,3e3d2d03,3f047c4a,bf5bcc1d,bf729251,beb32a67,3d91b919,bf1b6d42,bd9ed0c3,3e831b7b,3ee4b4e0,bf6ef4f9,bf865e61,bef88f71,be1d8071,bf61387a,be35d5c0,bf8c3b6c,3ef97653,bf3cb153,3eb3fa27,3ebbe7b5,bf64e3ee,be565d14,3f4f5a33,be870eb2,3f678ada,3f0c2e36,3db5dcee,be32cc86,3efe1169,3f3973d2,3f07eb5e,3eb93301,be60288e,bf81b441,3e91396b,3f62899c,3f6d35a4,bf938daf,3d5f3591,bda547b7,bf433b4c,be6a08a5,be49c80f,3e114654,bf854c94,3ebce913,bdd89257,bc9bda3e,be97f1b8,3ea90d87,3e9c9165,bf1a105e,3f5d4f98,bf12c32c,3f5d5ec7,3f04e58d,3df86e45,befed58d,3f13ae41,3efa1cfe,3f67a113,3f37686e,bf7582fe,bedd3cc1,bf1ec3ab,3f2d00eb,3d84ad16,bed70457,3eb6e8bb,be3922de,3d093e18,bf339e55,bf2687a0,3e990030,be86dae2,be9bb20b,3e3dc300,3e9e9d58,3f650dce,be6b2164,3f62630c,3f6ae7b1,bed7f0f9,bdaba524,3f699679,be0e1bf3,3ef2dd75,bf242a08,bf0f3f39,3afb230e,3f156814,bdad2ffa,bf7c47c5,3dbc5f9b,bed54500,bd542665,3f86de25,3b002493,bec7788c,3d296619,bd1ccdaa,bfaf09a0,be8a1e58,3e00cad8,bdd4049b,3dc40124,3d5db940,bde2ddad,bdefe39d,3e996be3,3dd77ee4,3f4b561b,3f1dce90,becbc1a3,bf5e6dfa,3da128e1,bf1f3cff,bea87f8d,bda82f6c,bf283626,3f08dd78,be902085,3e8b084a,3c21039d,3f23aec0,3d5f773a,be5a0afb,bf8669d2,3e900e84,bf50a77f,bfc03d56,bf05aed5,be2b389e,be8721ce,3fbf84b7,3f7cb0dc,3f412086,3f5f60cb,3f65ca45,be9857d8,3e0bde22,bf7675d8,bf60424d,bf179457,bd1ed1f3,bf844ef6,bf831f63,3f152eaf,bc8fa388,beaf806d,bdbba895,beb1e1c6,bf0ed41e,3f097426,3e44f7a2,be83c18b,bfac28a9,bf8d5960,3e888ccd,3e49572b,3f04d762,3cf7dedd,be21be2c,bd329be2,3f3c33e3,bf531b29,3f3922d9,3e914b27,3e96ce29,3e8f20dc,3f1aa2f3,3f64190a,3f6c1bae,3ec656da,bf4083e7,be7efea4,bd792ba9,3f251dc8,3e4d7b2d,3e927405,3ee03f7f,3e9d8050,bf665d3c,bfafc24d,bf85df72,bf0ef7fd,bf3ea6ad,bf91fbfa,3e8db9c6,3e03a946,3fad6679,bf033f74,bd9368ea,3f0f893e,bf23d886,3eb72ee3,3ed866d9,bf3169cc,3eef6ce0,bf3cfa62,3e4b8fc1,bec11eb4,3f9d95de,3fb048d6,3e88235f,3e19cf6f,3fb39af4,3f999413,4019da8e,3f759f00,bf350c04,bf3a21dc,bf91c590,bf08135a,bf16a075,3eb992c9,beecbc69,3fa2b14f,3f184a84,3c89230b,3f243cff,bdb8c97c,bf08a9e3,3f0e9ac3,3df705ad,3edb3090,3f4bf67d,3d537db0,3f4a48ce,3faae547,3ea6f64d,3f6967df,4000ca48,3f7541ed,3fff7c8d,3ff3fff1,4004f261,3fc0e95c,bdbf9149,be07f9ff,bf9cdb59,3f4cdbc4,bda38ff7,3eca3d71,3f653b33,3f9bb2ab,3f1534ae,3ec0ef13,bc832cf8,3f06aa66,3f11b21e,bf4cd87f,3c58dbbf,be886ae8,3f4ec92b,3f4bb145,3eb52f67,3f9568b8,4004121f,3f76bc3e,3f715bd3,3f9e9d4d,3ec762bb,3fe9d6a3,3e91cada,3eb04b2d,beaaf634,bf92f669,beafc33e,bf8af7f3,bf8b4be1,3dc8216c,bd422991,bdb50fc5,be0181c6,3e76a3c3,befc9bac,3e0b74d9,3e81bd05,bed2b587,3f23e4b1,3f001310,3f463638,3f293d63,3f8546f0,3f063ad7,3ed49ce4,3ef51e6b,3fd18271,3f70e609,3d3252c4,3f160f0d,3e3c0b37,be906d46,3f7f3b4d,bf8bf783,be054984,3e1406af,3f2b403c,be8bc15e,be2c2b71,3ecb2a3f,3ed34cda,3e271550,3f18c4e0,bf0136b9,3e728e92,bf77ea81,bf711624,bee747e4,bd2d0c41,be940782,3fc2cdd9,3f8d78bc,3e862894,3f2e98f7,3f37d1fb,3e341c2a,3f90fe36,3f067a06,3df29976,3f0ab24a,3ecfefde,becab274,bf4642c9,bf148258,3d3689a3,3e8d55eb,bd03c0a7,3f132f42,3e8ca875,3f0cc3d0,3ec697bc,bf7de77e,bf74573d,3f191fac,3ed01729,bea79c25,3e59a07b,3f6ef2d5,bf546004,bf2cf3c2,3f32bef5,be9bc72f,3eebe893,3e55f7f4,3df50dfa,3ec4bb87,bf89ecc1,3e24a04f,3b666ab3,bf57a5c8,3ec3ecb8,3f1376ef,bea4d1af,bf6b7ef6,3e1c4be9,3f83fb97,3f20003d,befc148a,3ebf11bf,3df3cc11,bf7fbf71,3f760bf0,bf3f5eba,bf1485bf,bf10b4e5,3f3c182a,beb97d6e,bf28fca1,be689795,bee33780,beb07de0,be0361bc,3d781ff9,3eae9e85,3e7c0963,be88f827,be9724fe,bf4458e6,bf5c6fd2,bf5883bc,be09b57a,bdae75dc,bf142968,be9dec06,3f2e7338,bda20d75,3f28bb2e,beb2ed28,3f3f4d1d,3e5ea42a,bf0ed9d7,be6afb65,bf88e274,bec38c1c,bf9b5d13,3ee46411,3f31da1f,3f91dd68,3fab2bcd,3ebe6a72,3f435b31,3ea96f7a,3dfdba9e,be9871e4,3e933a32,be94a23e,bdb2bb5e,bd4d2cfb,bf4076dc,be30aefc,be63f41d,3f49d32f,3dd53e98,3e26548f,bce39a72,3eeca747,3f7d1b6e,bdfba752,3e95ee7d,3e9d0fc0,bf25b15e,bf95db8f,3ae37b01,bf383ff2,be5e21f5,3986ecc9,3f307a93,bdd95f1e,3f0c9529,be9c963a,3edf8609,3f2e51da,3f0e2430,3f126112,3e4ce4ed,bd25cf42,3c52458d,3f20b9e3,bdf9fa90,bf56baeb,3f2d454e,bf596530,be0c21dd,3f37cb14,3f64bb71,3e3f3df2,3ea225d6,bf44d4dc,beaf82a1,bf00e284,3cd2a916,bf839484,bf142688,bd9dfd45,be58ab1e,3f7fea76,bf15921c,3b64cd16,bf36da1c,3e13557e,3cc38742,bf0e1d85,bf4b4891,bf429f8a,3d9d9486,be7cb652,3f1cac8a,3f13ad2c,bda27aca,3e726d9f,3e55a9bb,be95e0fe,bf7ef114,3e98e772,3f4509fc,3ef7cff4,bdb85aac,bea6c75d,be47c9a0,3e0faf43,bf26cc2a,3f468865,3f0324ad,bf2a2757,3f0c8e0d,3ef0ccc4,beb4108e,bf1b6f4b,3df92e05,bf82921b,3d05e62f,bf5b251d,be87862c,bf451f73,bf81e98e,bbf952fb,be8f1251,3ec76520,bf5e237c,bf46df26,bf467f74,3f2f7c37,bf3e3834,bf31db8d,3ede8066,3ea50b1a,bf449a92,3d6da5c6,3f51ad41,bf37c1ab,3d26fcd9,bec5e49c,3e9da9f6,3ec6a0e9,bec0c5f9,3f9927f0,3fa3e9e5,3f714d7e,bf188fcf,3e13e632,3e8ecb74,3edab78d,3e4d6025,beea13a1,bf83d26f,beb3737f,be5c2f60,bebce369,3e11b3ea,bf0ecfd6,bbf1c3c8,3ebed50f,bf607684,bf8f68eb,beba4bb6,bf68311f,3e133ec7,3e62caa1,bf422cba,3f057baa,be93f2ef,3fb66734,3f1447e7,3e3b0b86,3e08d97a,be8d414b,beaa0679,3e8f6a23,be429321,bdbe6083,bf053a27,befa4746,bf63aceb,bf6273cd,3eb58a5d,bd1774e4,3ed2dafd,bf23ed22,3ddb7da5,3f2caa4d,bedb80d4,3e2c8283,bf2b02dd,bf25410b,3de76af2,bf83a9c0,3f126a09,3f45715a,bf802e20,bdfa572e,3f4c9058,3f86e417,3f86f83f,3f2bdec0,3eb9eb26,bf035f1c,3e0ad955,3ee4fc00,bf49cdce,3f3be3eb,3e1ad113,3b52568e,3f2ed6bf,3f0dfa48,beebc874,bf164d7f,bd9f6161,3dbaae67,be242479,bf2f596f,bf556b43,bf6e7722,bf2479c5,bf448eb0,3ed872e2,bf06d511,3f3c29ac,3f0c5b1e,be1d1f16,3eaa7a2e,3f0a4ec7,3ed9a693,3f666cf7,be2f12bf,be8542d7,bf6440c6,be0a2aed,bedaffcd,be52a813,bd906427,bd670bf7,3eba2de9,3ede701b,be5f3973,3ed39c98,bf57192e,3e46d44b,3ecf0e9d,bf3cf723,3ebbb9a4,becb57ce,bfa74c5c,bf632e5f,bf36e018,3decf0fd,bf3e5c60,bf87b5cb,3ed87e76,3e15b5ab,3f893df7,3dc88633,bef6dcc5,3de57786,be71307e,3f3fee61,3f7e5760,bf2bac01,bef66af8,3f679e79,3eb59b40,3f1c4c8f,beeff207,bdb836f9,bf72e3f4,bd563ad7,3efe212e,beb8d62b,3f127879,bf368294,3f2cb503,3dab9514,3f58543c,be917515,3f0ae18d,3e2e07dd,3e41add8,bcee0d2c,be0550e0,3e1db98a,bf3d6207,3e659ed6,3b3cd40a,3e2b1135,bea2dde5,3f366b0c,3e5968d4,bf426f6f,bf78a548,3e511674,bf240304,bdee348e,bf418c20,bf56902a,bf3bedc3,3f43a0c9,396b2b8d,3ea4d9eb,3dd6c3be,3f3a14e5,beaef9c4,3f791c02,bf2bfb16,bf044fc3,bcfd9b08,bf6309b7,bf01f7d7,3df36270,bf3af64a,bed6b76c,3f5c5ba3,3e2b63e6,3e573653,3dbf55ca,bf4f890f,3da962b2,3f083598,3f1b1069,be0b9471,3f088097,3e2cff6d,bf217732,3e1f6994,3ee4c3fe,3f401305,3e6b77ba,3ef09ebf,3e6368fa,bf308d7a,be85bdae,3ef60b2c,be1b0094,3cbd3fc7,bf7c75f0,3e489ef9,bf219b7d,3e725b28,bf391cb9,bf5efbab,bf16a25b,3f0b60fc,3f0e3ee3,3e02227b,3d9eea43,3e113f5d,bf50c6de,3f1df8c1,3da806e6,bdc661ca,3d5ad6a4,3f4bae23,bf347d08,be3bb87b,bf3ae6f6,3f1f341f,3bd4028d,bf1b00ce,3f028559,be83ed2c,3f066d0a,3f657a6e,be19477c,3ea9b79b,3f22448b,3f15f794,be79a9a7,bf567407,bf1b35f2,bf2e0be5,3f1c2133,3f01d513,3f76440c,bf122a2b,be057803,3f4920e1,bf6259a1,be8318ba,3eecfaf3,3f3512d0,3f467bb2,3f6b82ea,3df29e74,3f66b3f7,bdcdcbc0,3f79e1f7,3f4aa72e,be241da8,bf3db19a,bdac8158,bf5abd3b,bf215a96,3f48160c,be5231e7,3f62170b,3f250bbe,beac88d8,bf77269f,3f293c03,bf767bdc,3f7049eb,3ea704aa,bf4e2971,3f24bc82,be58e383,bf0dc00f,3d6f31a4,bd9f6905,3ea39990,bf74e490,bf0d42e1,3f36cf0f,3f2b527b,bf240158,bf8eb91c,bf6ff08e,3ec1a82a,3f1a2826,bf8c8f67,3dfc6568,bf403ea3,bec34469,3f2a6881,bf2c305e,beac06c5,3f3269fe,3e980060,bf2155ab,bf306ce5,3e30474d,3ee3d876,bdb3d0b1,3f15e0e3,bf7d952f,bdd03628,3d4af322,bed21942,3f19b4a6,bed3bf0c,3f2b14f6,bf2fb287,3e13b24b,3e841e35,bf9bc2d4,bec7e50e,3ed46f46,3e9f730f,3c5e1c34,bf71b0ff,3f06bfe6,bc2a6622,bf01cb43,bf0c7846,3f96ef56,be878b24,bedf4ef2,3ecd4b92,3e9c791b,be6c5cfa,bef8acec,be532e7a,3d67faab,bf7c58f4,3b9c5d20,bf5b0a01,bf45db5d,be8e434e,bef70064,3e5bce93,3f512313,3ea75801,bec114d0,3f301482,be36e921,3ea8a4b4,3dc2709d,bdb03749,bf866258,3f2e153e,3f7dddff,be5d0af8,3f29897a,3f471440,bd8c4e90,be869139,beb196af,bebb147e,3f7ac63a,bf09dab9,3ec61ae9,bdefc49f,bf5c6db1,3e06ca67,beb64a69,be03e428,3df67c7c,bcb2a52b,3f1941c7,3eacf6e2,3f4b5bae,bf1199bd,be8d3ef9,be5a95ed,bf08a48d,3e9a11d9,3f4347a4,3f9b5821,3ee31891,3ee05eb7,3d4676d2,be92fa71,3f80c8f3,3f16ace0,bf5081d3,3db94736,3f0f1700,bf57bcc6,be359f21,be094993,3f45ab9f,bf01dbaf,bd34b833,3f541f2f,3f921c27,be04dfb2,3f23c490,be2f7151,3f699399,3ef75a2b,3e9b438b,bebd2b53,3fd0fa2e,be99315a,beb38dfd,bdf7081f,3ecd4750,bd778482,be2aa2af,3ea49346,bd084bd3,bf0d4492,bf4d400e,3f2884aa,3f1db912,3effc5e7,bf08a0ce,3f4513d5,3f1767bd,bee9f693,bf146cb9,bf12e537,be83fc8f,3ed73651,3f4f05eb,3f2e348a,3e0524eb,bd27934f,3f4178b7,3f9beef9,3f406d9a,3fb70e80,3f6456ef,3f92e14b,3f6cc48a,bf745f3b,be42e47d,3aa29441,3f289f93,bf34a464,3f3d661a,3eb35a4e,bd33a5ae,bf165f99,bef04ab1,beaf84ee,be95ed6d,3f4f318a,bf5ad698,3ccf0be7,bf2fd880,3f567b91,3f85f7d9,3ebf528d,3fa45d80,3f6b17c9,3f0b0e18,3e274ce9,bea012b8,3fa6c795,3f6100d6,3f43f0b1,bf08bb71,3ecaeb4d,bee7fa68,bf840a40,3eea0d39,be7b4987,3f57b847,bed6d884,3ea29ccd,be81fdbc,3eeffea4,bf836547,3dc7624b,bec45aa2,bf1b5f80,bd2291d4,3f22598a,be03dc16,bf1aa9dc,bd47fa63,bf345269,be059a42,bf9c3509,bf0700d5,3f067375,bea5c070,bebaf9a8,bf0d3b50,3f2abbfc,be8ea774,3efe1ffb,bf86b533,bf0aa8d3,bf1e5a9d,3c0211db,3ed08eb7,bd8163f9,bd79f34c,3f128663,bf289be5,bf604145,bf1f71ff,3e9718ef,3e587b96,bf0e8699,3d32cc83,bf8f2c53,3d61ac29,bf86f779,bf9a2f87,bdfbc789,bfb42386,bf823b65,bfb2d11c,bf9ca3d6,bed24e52,bf2236d4,bca44304,3e3a9993,3e1cb3a5,3e18e955,bf01d512,bf39a657,3e11b478,3de6f176,bf6964ff,3ebeaffe,bf2796b2,bf19f2a0,bf2ca9fc,bebdfa63,3f67a462,bf0921d0,3f1341d5,3f90e55c,bf3f6b83,3f059ed0,bf2ddfe0,3eabfed9,beb8e358,bf9b4e68,bf02e220,bfa6a8f0,be189200,bebeb8d6,bed2226b,3e4eebbc,be4e4edf,3efae79d,bf88e64d,3f014112,3f626cf0,3ea43c7c,bf2db2f9,3eca4a68,bf133098,bf7c2450,3f54e54a,3f60f987,bec0e2ab,3eae0620,be118b85,3ed64abb,beb892e7,bf40e18d,bf0de022,3ea2ba42,bf148c09,3ea6c424,bf58cd6b,bea49491,bf2bc6f4,bf3e81e9,bedd92a1,bf49183a,3e1275a7,3ea39951,bf772b83,bf5278d9,3e8a782f,3ee74af4,bf7f9f76,3f612238,be3397a8,bf42dd47,bf0f6f78,3f4721a4,3edf969d,3f86d691,bdb21797,3e8e965d,3fb9e594,bf071f06,3e43dd28,bea06486,bf1e56a4,3df07dbe,3e3aa73e,3d2823de,3f22d195,bec4ab52,bf216fa8,3f3b1c8a,bf39b727,3ef56c45,3d8dfe36,3f076b0a,3e29478a,3e905cb7,bd262075,3f7ab862,bf16183e,bf0deab6,bf314356,be12de0a,be86c5f5,3eec2678,3f96281f,3f396d17,3eca2cf9,3d215f6a,3e61753e,3fa904ff,3f85a2db,3faeb5e0,bc57d75a,3e83d4a4,bf36d0a9,3ee92e12,3e9ef0d5,bbceecac,be34cf1e,be32d6a4,bf55f7cc,bf5395e5,bf6f7121,bf1aa0a3,3e67a8d1,bf75137a,bef90a21,3f68123d,3e92f429,3f61b26e,3f77ae2c,3f02df71,3faa4c50,3d50e842,3f9289f8,3f23ed0b,be74157d,3f9da6ac,3f9457c4,bec4ac83,3f47ab75,3f39361c,be3f1297,bee939c3,3f1f9167,beab2848,bf62759c,3f453ce9,3f054c9c,bf15f1ef,be8720de,3f075986,be82b651,bf0d2598,3ec7cfda,3da95dd4,bd99fb40,3d71f991,be9842c7,bf18cfe9,3dfd05b5,3f481e34,3f2f9c92,3f7b0a6b,3f957333,bf173452,be9c4501,be979ce9,badb289c,bea814c6,bc8acd4d,bf0ebfe4,3f32737b,bec4c0e7,bf63da2d,3e8b5417,3f3e0b24,3f25620c,3ee0cb88,bedfe1a7,3f41e812,3ee5c248,3e53e88e,bf0be5bb,3f0d99da,bdf8ae21,bf708c2e,bf38480a,bed6140e,3ec35bf4,bee283b9,3f45f387,bec0be0b,3f0fd622,3ecd693b,3f1d0f55,bf41cca6,3eb02836,3e565333,3e2cfefc,bc251897,3f4165b7,be75924c,3ed861ac,3f345145,bec422a2,3f68f36f,3f710e8b,befe4fbb,3f1bea1f,3e6f797c,bf1bd512,bf963e20,bf8de5d3,be64704d,bf167173,bef94259,bf2c3d1b,3eba0497,3ee8073e,bdb634f6,bde47842,bd52f719,bbd63912,3f80294b,bb0d21bb,bd22e84b,3e58be6f,bf70f5af,bf60c8f2,3edf1e94,3f471ca8,3f5e4df8,becdebb7,bf732a56,3f153cbc,bf6e7490,3f3ad24a,3dafa82a,bda4a1ff,bf9d8e7e,bdf4ba9e,bdda522a,bf07d2d6,bef23a9a,bef214ca,3eff6da2,3e997fd4,bf5c386c,bf427e5f,be78e7c0,3e543f51,3f473fa8,bf254851,3f0f714d,3e2019fd,3f866e99,3f5c4cc5,3f0ffdfc,bf0365ce,bed76039,3f500047,bf57080c,3e9a34ad,bea010e0,3ede5349,3e763e5e,be4daf69,beec79c9,3e25dfc9,be10b9c8,3cbc4dd2,bf4af722,3ba1453e,bf8653e4,3ee08d71,be03a581,bef51637,bf59ab8b,3f11f35b,bf27d89d,be80311f,bf165d38,bec91cb2,3e9ae026,3e8e9e1d,3f2e95ea,bd69bd9a,bdb52e77,3ed106dd,3f4c0870,3d9ca4bf,bf1cc5cb,3ed6f3d3,3e361c66,be9b02e2,3d096b81,3f82cc2c,3fa9c5f6,3f452c23,3f332bd5,3f2b500c,bf6dabf4,3e6138fa,3ed24a24,3f2c12b7,3e240aa8,be98225d,bf0cefca,3d32bb72,3f51f97a,3f39fbe9,be8fce3d,3ed414ce,be01848a,be866e3e,3f141a2e,bf23bb1b,3f2b870e,bf72c796,bedd80a1,bea102c0,bd7c1613,3f515612,bf24c01b,bea0a570,bd4e5b3f,3f267fc2,bec4f84b,3e13877c,beb2a326,3a75c56c,3f82662a,befac019,3f3cb912,3e0666e2,3f5bcec3,be6d1fd8,be40a9ca,bf2befdc,3f41e24e,beaf0f96,3eb0f9ac,3e161059,3ef76255,3e6b04e1,3f46130c,3f3378e5,bd83ad0d,bed396aa,3f26c38e,bed93625,3cfef080,bf0cd6da,3f39c5e8,bdc89256,bf3ae3f7,3e5ee0c3,3f81c13d,bee92f50,3f8c6513,3e77d128,3f07ed4a,3e46460e,bebbe6a1,bf1f121c,3efeb19c,3f17c6f1,3f49a992,3ed3e640,bd331a6d,3eb69f38,3eae7659,bf7f522d,3f42dd1d,bde95f6a,bdf9e09d,3e7f246a,bf3400d2,bf7e12c2,bf5f0b47,bf60bfdc,3ef5ae87,3f1b94e5,3f6ba2b5,3ef5e066,3f5aa446,3f522456,bf7819a7,3f17375f,3f3ec7ab,3e0363f4,beaa0b9a,3f08b2cd,3f66d8aa,be27697d,be1fe840,bf1440bd,bdd4881e,3f1a515c,bf6ff9c8,bdd609a5,3ea826fa,3f41aa65,3f5bd32a,be8d947d,3da076b3,3ec332c3,3f1a4a38,bebf3c6d,bebb328e,bf3804b8,3f3bc749,bee7b37f,be84f7ae,3ef6fc29,bf137f1e,3f55cd29,bf4c2701,bf77a52e,3f34d5e3,be967490,bf7e1027,3b1fb185,3f32fca0,3f233739,3ebc6e6d,3f24d3bb,bee105fb,bf58d2a2,3dc4ee10,bf299a7c,be9033df,3f6f3089,be08a801,be17d4b2,bf146690,bc6a8b30,be69e41b,bda9783a,be2792d1,bf13878c,3f209f2a,3e4f66df,3ef50de4,bf349f7b,3e6f95bc,bebbf34b,be9e0f4e,3e050af4,3ee80103,bf7170d9,bf4f3841,3f2f1c8d,be8463d9,3f2ffaad,3f176d90,3e879ee5,befd2af5,3f2e79eb,bf5ccc55,3ebdc54d,3f7059f5,bf5a10cd,3e3fe1be,3f442a1d,3d119b85,bdc3fcce,bf6728b6,bf1f40f3,3f28b62e,bf62de00,bf6ae01f,3e97e49e,bf68a41f,bf5ddb6d,3e2ae607,3d8609b7,3e9fd03d,3f5efb0f,3f5ed2a1,bec8a88c,3f2534f0,3e9bfbee,bf6191c3,3ef8e40e,3e126e8b,3f151747,bdd19001,3e893ef3,3f358be3,befa2b7b,be2fd250,bf52ce71,bf212880,befdd4f1,3f6809ad,bf332a01,bf6c1d2d,3e2a537e,bf6c2863,3f7584b5,bf74e588,3eb5344f,3f02d55a,be03eee1,3e5b626b,3f1cdfb6,bf79188c,3f7053de,bf083678,3ea16e2f,3ee486aa,3f6901d7,3e086fe7,bf1b6b50,beacf423,bf29bbf2,bf038d91,bf181e74,be994385,bf3d26fc,3e8747f4,bd9dc117,bf80b111,3f722278,3f43d7ba,3e658418,bf13b234,3e365cb9,3e1f2806,be7213a4,be46ca0a,bee3d4c6,3d85e090,3f26084a,be07ca46,bdbea75e,be22099a,3f6074f4,3f42ea2e,3f6880a9,bf709644,be02f32c,3d9e7ec1,3eb4f51a,bee241d9,be308ad0,3ee98457,3f0646ef,be365b75,be8f0b55,3f11c1af,be9d1ba6,bedfb0a7,bf4c6156,3f162230,3f55a05a,3f4c2959,3d2fd2b0,3f261de5,bf46b9ef,3dd7af5a,bd945e0a,3f42c7cd,bf1bff95,be2d84bd,3f333d62,3eadb2f4,be3ead76,bec31a07,be8bd7f0,be8a5285,bf6efe75,3f5bc697,be4c9d54,bf546954,be381b65,3e39cf0b,bd8fad77,3e8757d0,3f291131,3d9a72a4,be96898c,3f7578be,bd4566ca,3ad8cbff,bf2a2352,bf3d86fd,bf0de5d4,bf59237d,bf4c1509,3ef07749,bf182151,bf78afc3,bf2cade3,3ece0ce1,bf36cf2a,bf114799,3eb943af,bed4bbd8,3ed187c1,3f3d3651,3f73af1e,bf13ea70,3f1e302f,3f95ce31,beeaaeac,bf134eda,3e28999c,3d642f1b,bebb4636,3ea1c89f,bf3e4879,bf7c76fe,bf1ef730,3f48d014,3f107a09,3c793e63,3f194a52,bf2ef5b9,3ee90a41,bea7964f,bdbf9d29,bf3de7ed,3f147ef3,3e733219,bf2aa7c1,be30533a,bdaa7971,bf444b9c,3e01e07c,3d93a68a,3f14732a,bea6cea0,3f17da96,3f8a12ca,3f86d0a4,3ea9e543,3f4e9bc8,3df94714,3edaef50,3f122e96,bd3cb5ba,bf67f5a6,3e84affd,bea2c0ef,bd88afd0,be9fd969,3ec1ccbb,be8b1551,bdff9bdf,bec83dca,3e108a02,3f1ad0a5,bf554512,3f3c929e,3ed7e12d,bf405aec,be9f2421,3f143fc1,3db8a9b8,3ea95812,be0f8244,bef55173,bd959f18,3f2f9e64,3f132ef7,bf1b5ff4,3f3c992e,3f14a35d,3f0d4651,bf2eb7aa,bf00147b,bd8bcb94,bf2a72df,3cc7cb46,3d86c039,3f7417f4,3f018c64,3db72d54,3ca4e09b,3f0061fe,3f718790,bf0a35ff,3f7d0009,3f0fa424,3e827e92,bf06ee88,3ec37a9d,3dd512dd,3f52957f,3efb116b,3d2f5dea,3f2283e1,be9c039e,3f55d5da,3d8a175e,bf6dac91,3e851043,bf3b3e2e,3f5b74f2,bea5897d,be74ef29,be825261,bf794f83,bf7e5ea4,3f35a0ce,3f410794,3f1e78a0,bf6c74b2,3eb7dd17,3f099628,3f191f06,bef2986e,3bf434a3,bd78738d,be6c5da7,be4d3100,bf8328f2,bf41eb01,bf18734c,bf06d99f,bf0dd835,3dfc67c2,be9f9768,bfa2c033,3eb22496,3f02bcfa,bf1f882f,bf5d7436,3d085ffc,be1acdc6,3c1c4486,bf3bcf54,bf54b411,3f25c915,bf1dce82,bea0628a,bf6f5267,3e3d0aa9,3f4a1614,bf2abbcd,be4dfc08,3ddc8a0a,3db66581,bf1c0225,bee0f110,3f30b6d8,bf290927,3f20af4b,be110b1b,3f289e72,3f26e555,3eece3e2,bf9aa166,3ea83073,beab159f,bf843b16,bdfb2d8b,bf877e7d,bf0b39ed,bd96e0ad,be7ae45d,3f3015ab,be5d1b54,bf09cbbc,bf196a94,bf416bcf,bf0740e4,3e71b861,bf485047,3f10f48a,beefca3f,be357f64,3e71e619,3e58720f,bec4e4c5,bf06a0e6,3b739566,3c8bb7e8,bf106acc,3e4f4f68,3ef13969,3ede992e,bf1d665e,3eea71b5,bf12effb,3f4445d4,bead40d9,bf19f90f,bf071b0c,3f755132,bf6a3dad,3f0fd193,3e36206d,3d9b3484,3f5d84cb,bee4526f,3ea01aec,3f0f1178,3bba61df,3f1dcf83,3dfbb558,3eb48912,3ebca276,3c8165c2,3df5d25d,3e4c90a2,be9aef3c,3f1aaaf8,bf6a90d3,bf1090ee,bf6825c5,bee70aa3,bd07916f,bf1f0a84,bebc3a06,3ec47135,bf336337,3f1fa0da,be083851,be4b48e3,beb67fcf,3e0df3bc,bef6436e,3f03db2d,3f1ee4e7,bf80319b,3ea11da7,3e3f624f,3ee0861e,3effcee5,bf5f7747,bdcf10bb,bd57df59,bf09c09d,3f516c12,3d6f103b,bef52b4e,bda8436a,be559190,bf3c1518,3f2de099,bf337687,3f0b136d,bf1e4d0c,bd1ad869,bed71ce5,3e952dc4,3f509e58,3c13ffa3,3f3cae33,bf60a858,bf2a502b,bf797562,3e1213bf,3e47b117,3f1ccbd2,3e87586a,bf34f20a,3bb7ebde,be0a3391,3e84a1ee,bf75b25d,bd827c79,3e91eb27,bf444668,be87107d,3ef3207d,bf3e2c7e,bedbf60d,bf33b2a2,be98b90a,bf0f99b4,bf3633f8,beedcced,3f463774,bef8de17,3e264757,bee80588,bf464b46,bf417d95,3de29497,3eece50e,bf3fa660,3ec64b43,bf595961,bf8d1807,3ec44963,3efb711f,3d19c94b,3e8eff8b,bf8084e1,bf0732fc,3f67250b,3e502668,bdc1d1e1,3f541636,bdc9b4f4,be73d51b,3f53596e,3f29b7a6,3e85331f,beda9861,bf5f9f9f,be38fa52,3f000596,bec5f3c7,bf731b8c,bf506ec2,3e04ca1f,bec36208,beb1a077,3f1588b8,3e1d3e1a,bd9baa52,be6624ee,bf53b90b,bf5dbff3,3eda9e31,bf5dbe28,be94a658,bf3c7007,be8b5a2e,3f7930ce,3de49627,3f16a130,3f1feeed,bd0f323f,3efab499,bf2bc8bf,3f16352c,3f24e13b,3eb4cade,bf774621,beda63b0,3e7c7994,becf9f8d,bcf4d736,3f2f2e83,bf548ffd,bdb9aafc,bec65e8a,bd06594d,3eab4752,bf42ee69,bf3d93d4,bd235e7d,bf30991b,3d803488,bf81c693,bed640fd,be9942bb,bf7ee686,3eb8ab16,3ee37086,bf274374,3f79fced,bdf6eba1,3e826c4e,bec917d3,3e2549aa,3f577cdb,3db6c3b9,bf359bd2,befb1876,bcdcc16c,be2e838c,bf56d8be,bf560a9d,3f88edf4,3f2b70e5,bf21703a,be082c2a,bf2318ca,bdc6ed4e,be3ad996,bf39c9ec,becab2df,bf3c7fc4,3e8873c5,3e5b8034,bf29abcf,3edf3750,3f35cfec,3f80b8cd,3f64a648,bf5818a9,bf19946b,3f03bb40,3f2cafac,3f50555f,3efc15ac,bd68b61b,bec5ffbb,bf3b0a84,bf3467ac,be99fea9,bf0b16b6,bebec65a,3f86c01d,3f7d6fb7,3f05c5c1,bf2aef15,3df3a0e4,bea7dac3,be86cb86,3d402935,bf26eb14,beb4617f,3ef9e240,bea8893c,3f80b7a2,bf5297f1,3dee4652,3eee0c1c,3e928da0,3ae46bff,3e282632,bf738513,bf5dea88,3f54824a,3e0dd85b,3f6dc7ed,3f4e456b,bf6b1502,bee8793e,bec257c2,be89ce6c,3e1a05f9,3e75e438,be864cd4,3e7250df,bee3898c,3e3cb05c,3ef64597,3f10b8e1,beacc786,3efaaa6f,3eac76ac,3f41cd5d,bdf6f9f9,bf5f28bd,bf6360d9,bf3d3393,bf506ba9,befaacf4,bf2ee4ed,be273b61,3e89e5c6,3f51f6da,3f42148c,bf12c2af,bf3be642,3bc39ccc,bf2d5172,3edc3517,3ef2a9fc,3ecc179c,befd76cb,3d2e29b6,bf84ca65,3f424a69,be2e875b,bd5298d6,3ec2b7dc,3df497e4,3e60b653,bba3024f,3ece7e0a,3e5ca441,3debf21a,3f79f8ec,3e4ed547,3eda7580,bf2980c0,be94d44d,3f64586a,3f10ef3e,3f4d01c6,bf484472,3e8a08ed,3d940583,bf002971,bf509e76,bf4dabf2,bd669237,bee68723,be35b92f,bf1772ad,3ed3f7ae,3ece6d63,3f4d577e,3eb833de,bd38e2ac,bd9283b7,bea018b8,bf45639c,3edc54f9,3ef9c13f,3d4697cf,bf09c74a,bf291076,3f7468c4,beca2137,3e595121,3f465099,bf1f1246,be91da07,bf6d2d42,3c8fb576,be2e8761,beb56016,becfcb11,bef238fa,bf1addb5,3ef63173,3e201600,3e933472,bea7682f,bc59129f,3eac7ce5,3e8daff5,3f74f852,3f4b90fe,bf721d7e,3bf4aade,3f5bd899,3edd8d40,bf18c3c5,3e864c52,3db321c4,bf6380c9,3eb176c8,bf55be21,beadae21,3ef4d6ec,bee9233e,bf147a5c,3f42fa32,bf4a5470,bf70d043,bf200976,3ed811e5,bee5c5cd,3e0602c6,3e2b600c,3e1a43fa,bf5d685e,3e8f2208,3f647577,bea9322d,3f510320,bf009481,bf3fca68,3eb22607,3f12a8d4,bf40b588,bea62178,bf40c088,bf66b8af,3f7cebe4,be96e5fe,3dda5fed,be212a06,3e85c643,bcecda67,bf57bdf0,be647d4b,bf47b670,3aa1fde6,3f5bb6f8,bdc01af3,be41c357,be27e539,beddd1c0,3ee49a4b,3ea05bdf,3c184a3a,bf7cf0c3,bf558e84,3f6e6695,3efb88c2,bf70f0b4,bf58e79c,be84ca9f,3d9a597f,be4df86e,3ee7afd3,3f2b56b7,bf3cb5bd,bdbc5af2,3edc14fb,3d14ac21,3eb4cdab,bf07728f,bf044cd7,3f3aa7c5,3ec8f090,3f544640,3e21c8c6,3ea28742,bee78427,3d884d80,3cfd874d,3ded4daf,3f328983,bf3c3000,bed7bc5b,3f2b559b,beaf0430,bf112715,bf0b33d8,bf434438,3f5057de,bf14e22c,3f74867d,bef8e68e,3e5c9347,3ee7d002,3f317abd,bef4a692,bf4200b3,3efbd9a0,be6301e0,bf774ed2,be8124d7,3f168d97,be4837d8,bf6585ca,3f205524,bf53814e,3f5c74f1,3f786834,3f3a0248,3ef1f608,bed69f6f,3c6b96e2,be45ea67,3f621448,3f6263b4,3ecbe375,bf6e891f,bf2e09a5,3f4d73d7,bf022873,bebb7aac,3ee0fa2f,bf655044,bf674bcf,3d289850,bf3a26b8,bedc31af,3f53f4a5,bf350cd2,beb4e9d6,3e5700e4,3ee244dd,3f6f63a8,bf12c69a,bf0b6416,3f16f8f3,3f0d4100,bf45cca3,3eb505e6,be34d7c6,3f19ac52,bf1381a4,bf738ab4,bc00d22f,3f583896,be2fa366,becf6f87,3f73ac66,3efc3b0b,3f50c84f,bf0f5e25,bf2a7597,3e055656,3f593ed1,bf41463d,bf6f3031,3f4d0082,becdf7d9,be929ef5,bf67a273,3f7e477a,bd22445a,be05dcd0,3eb2721e,be581301,3f306219,3e3b1395,bf0daf52,bf33bb3f,be3e9e30,be1db6c2,3ee17a08,bf2e4603,3f74646f,bda0f9a0,3e88dc28,be8b90f1,bf13e0eb,bea5f7ad,be365e90,bd489176,becc7bd3,3f68f4a1,bf45c782,bd8dc0c9,3f372b24,be5e1acc,bf7c73ec,be342469,3e3b01cc,bf11c1f9,bf9040f4,bed84dfc,be082daf,bf0f1e86,bf15bd81,3e8e8f76,bf655187,bf343d92,beff8f0f,3df7e575,3e3d65a3,3e8d1627,bd87a93c,3f3d0cf0,bee99968,3ee1b74a,3f00e845,be0c9f3b,3dbe32ea,3f6963d7,3e4a57aa,3f8a82e4,bdc23d81,3f1fb531,bf12cfa4,bec4d6f5,bf9c8367,bf29e0d1,3ee34781,3cc69210,3e9672f1,beb0388d,3ed97a61,bf547b17,3cca3bcc,3ed2fd4c,3ea87fe0,3ed38a94,bef43c38,3f15718f,be02d441,bf4e890e,3f66deb2,3ab0b184,3d897b08,3ed61fbe,3f117d46,bf68ee5d,bf0224e2,3f526b7a,3e5c3f81,bf33661f,3e2beecc,bf1caaba,3e4cb615,3f22ddaf,3e1688c4,bf8ad861,3ec72b6e,3da278fa,bf40576d,3f04b919,bef220b1,bf5a47a3,3eb7fb6b,3e4f8a6b,beb2044b,bf3e15c1,bf7d18eb,3f44c5c1,3f5c17e8,bf891049,bea9a854,3d244cc7,bf7183df,be964689,3eea29c2,bdbc0429,3f63d22c,bdef0074,3f142151,3e258139,3f25a75e,3f1611be,bf1664a8,3f6ac31d,3e4c0b95,bed11d1c,3f089537,3f6b876a,bec46e5e,bf538906,beddcd13,bf711c16,3f6a14cf,3f62779b,be5f1022,3e9f015d,bf5c97d2,3f095a8c,be91cdfc,bef32308,3ef00a74,3c59c1cc,bf0be3e3,bf31548a,3e9b5e06,3f00e918,bd032705,3fa4ee2a,bddf94dd,bd865e21,bebd1c28,be9e34e3,3f608733,bea31e13,bf540d03,3dcc2dc7,be934c2a,bef3d023,3f1e5309,3e6a011d,3ec6c8e7,bf71666f,beb71690,3f52b65b,be92bae0,beb3b39c,3ee81f3a,be2e8a4c,3eb087de,bf6bb0f6,be09ac08,bf1d5227,3f2561f8,3ae13d22,3ef1373d,bdf1e121,3d9727bc,3ef5e473,3e697266,bf03d8c4,bee33989,3ccd7336,bf232498,3dd8eb7c,bf03ba44,bd8b032b,3ef7be92,3f16ab3b,3f2eb138,bf42f18b,3f4f52e4,3f1611b2,bf17fc2f,3ee497a9,bed81c2b,bf17e060,3f44b6e5,3ec0e996,3d785a9a,3f481179,bf4a6105,3f7869e5,3e24af49,3ebdf22a,3e8f09a9,3e8752cd,bf1946ae,bed8b88f,3f338b34,3e0c8d28,3e8fa6b5,3f4b971e,3f948701,3ed68ae3,be174344,bebd9f6f,3e2dea12,3eddbd46,bd554951,bd8ced5e,3ddd7984,3ea5e32e,bf1013c0,beacbc96,bf084577,3f216288,3f4630b9,bedce0eb,3d2c0452,be84472e,3ea73d3d,becdbafb,3f111885,3df4cb79,be08121d,bf022b71,be747484,be8cc250,3b1d2902,3f86972e,3e0698d0,3f83620e,bf670445,3e85fa8a,bf2e0b52,bea45dc6,bf84dbee,bd78c2ae,beed9a9a,3ec4faab,3f10665d,bf3a76f3,3e7cb703,bf72b711,bed57eac,3f2e68dd,3f63fa1c,3f1bb325,3fa59e72,bef6b668,3f00e647,bf417dbc,bd7e4fc7,3f3c651b,bf0ebf94,bf20f243,bedec761,be4d6766,bdd8c9b0,be60d63b,be9fbd77,be6788ba,3f551642,be470a84,bf5856f3,3ef90c39,3e96e423,bf0410e3,3e8b2d48,bf458870,bea45a9a,bfadc10f,3d62553f,beea73b5,3decf8be,3d9faaf8,3e4ea62a,3e7c113f,3e7b5f0b,bd9d07c3,3eacb221,bf8022d3,bed77fbc,bf9e47fa,3cfb519d,bee5bc05,3f254c95,3d64e408,3f28bd97,bea60a13,3ed1e778,3f15ed50,3eff98a6,be393127,3e7fc0f4,be1be4f2,bedeac26,3e240ca8,3cbeec1d,be99f663,bf8340cf,3d0bea6f,bece367b,bfac4644,bee987bb,bfd8327f,bfb44ab3,3f5d062e,befe367c,bf82a188,beb049e8,bf1ae9b8,bf9bbe96,3f2e1b59,3f23ff4f,3eda46ff,3ef923e1,bf485259,3f686383,3da07199,3f41a165,bf0bbda2,bd8b825d,bf7cda73,3e64aa80,bfa5a359,bf921b15,bf65b34c,3e827130,bfb6970a,bee52311,bfd0993f,bf936c35,bfdc311a,bf9a3c91,bf3fbdfd,bec210c2,3e1fa2d9,3ecfe916,3d406f84,3e3d2f70,3e02b1dc,bec0163c,3d3dabb0,3d3501bf,3d87f2bb,3f7780e4,be1f4d06,3ee5ea8f,3ddda262,bf97055e,be86870a,bdd7946d,3ece6161,bf18e402,3f397d7a,bf4427b4,bea1986b,3ecc0886,bf333929,bfc7f1d6,bf9c906d,bf591924,bf6a2176,bf1b259e,bf6df891,bfa8b223,bf8d0d3b,bf0e4b93,3e328a93,3f3bbd30,3f3f66dd,bf3883f3,be78a264,beb1d6c4,3f4fffce,bf3b42cd,bf717840,3ed3212e,be86e02b,bf3a778a,becd68a4,3f5226e0,3f12d926,bf6f118a,bf14e1ef,be70f038,be6d18bc,bf0f6129,befbeb74,bf25b70a,bf89dd81,bf965534,bd8bfbcd,bf7658ff,bf430c23,3dd268a1,3f49b5c6,3f124de8,3f1f4713,bf511ce6,bd1071be,bf62e072,3efe16b8,3f1a09ba,3f6b96ec,3fa194ec,3f3a7dd1,bf29083c,bf500c94,bd436ccf,bf221991,be9dbf45,bf5dcd6b,3ed150cb,bf0b2247,bf129a94,bf772624,bf70f6d0,3efb9b16,be0962c8,be8c9949,3e7b9ca0,3f0afb13,3f88457b,3f9fb5b2,3e915435,3ee40ba6,bf1e26a6,beb161e4,bf22a1e2,3ccc9da0,bed1e8b1,3ee08928,3eda6482,3f0df210,beb6d28e,bf30264a,3e170b0a,bf11ea2d,bf2244d3,bf4eac4f,3f0ef7e7,3e9091b0,bf2ac40b,3e60b6cf,3e6bc023,3e5fa0bc,3eb5eb50,be4c3fe4,3c03eb3d,3ece7d7b,3f41b232,3dfa75d6,3d6a5bbe,3e0fdc79,bf17ca24,be1e21ab,bf0f29f7,bf82615a,3f3b1e85,3fbd1781,3f8d058a,3f97ee08,3f040632,bf5bdcec,3e0b1c14,3e640c73,bf38024f,3ece5607,be18d40f,3f12ddf3,bcb7d532,3e224e4f,3e9d100d,3f1378a0,be0c66ce,be1e1678,3f250e16,bd47e9f2,3f90fbb0,3fac0db1,3f2f3246,3f6f0f14,3ec51802,3e4a9c8f,3f6941fb,3f6b9299,bebd1c40,3e708d04,3edbf261,3fceb53e,3eb68dc9,3f111dbb,3f3d3502,bd4f624d,3e3afe8d,3ead9287,3f9baa48,3ceb4c48,be0527b3,3ebf1285,bf5e709a,3ea02e81,3e3f038f,bf3eb51c,3e967faa,3f561651,3ec96390,bd955e9f,3db39e67,3efa5a2f,be4af2dd,3decda9d,bf56ac01,3e9bf97d,3b31e460,3eca8d68,3e93b416,3d4576b7,3fa4669c,3f9a6cf3,3fe05962,3fbef97c,3f9de16c,3ef859c8,3e0333c7,3f64b97b,3f13ce0d,3e289151,3f060a59,3f451123,3ef80354,3c67aceb,3f8f9f22,3faf9ee1,bdd280dd,3f9c895a,bf2a0447,be506e84,3f798f15,3e1c07e7,3e8bdc52,bf6214f8,3efb62b8,bf0f1038,bdb70c76,3f2c6ffe,bebe8345,3e9c5495,be04d4c9,3f68bddb,3f86691f,3e8ca45a,3ef4892a,3db21d8e,be5d81f9,3e7b8dbd,3d3e4e7b,bed76848,3f1ccb3b,3ed8dec7,3f297ecf,3fa7ce50,3fa34a61,3f941767,bd8dad6a,bf573bfc,be595a5b,bec7369b,be112222,3f0a8744,3dfd55ba,3e69e921,3f31747f,3dec439e,3ed289af,bf017163,3f7928bb,3f0bc64e,be2d2083,3f8c1a89,be62d3c2,3f5d4fef,bd0b12fa,3f16c10b,bebf4386,3f0b4240,3e8f8dda,3e4296a7,3ecc4f6c,be68efde,3f481adc,bf250921,bf3f181c,beb56fc2,3f549391,bf60fb37,3f3befd1,bf08e69d,be2dff80,3e3165ab,3dd0687f,3e432b8b,bf0adef1,bf076ce1,be8c3df4,bd004d13,3ebefcf8,bd5bf181,3f142479,3f129c77,3eba765d,3f3e4d80,3c8d88de,be1a9956,3f81da88,3f22aecc,3f2ba46a,3e9dbefb,3f346cba,beea67ce,bf71680a,bcb2a4f9,bedaefac,3f7393b5,3eb49e68,3e86b8a6,bf2b5603,3f494007,bf93c8f6,bf5e6a22,3ea2000f,bf6c665b,3daa4f78,bf8dba50,bf33ef67,3f40ac73,bfa2cfb5,bf1d8c63,bef58fd9,bf0adcf4,bed89479,bf023d2d,bf092fc9,bf47f939,bf19ea5a,3f774354,bf4825c3,bf20d165,bf161cde,3ebcd56e,3f1b5c25,3f3938eb,3f733e07,3e9c3e41,bf7a60be,bf2779e7,bf127b50,3f11f0c6,bf0d9565,3d55ba76,bf86214c,beb268c1,bfa52b22,bf8011c5,bf92a910,3e1d3097,be638fc8,bf842e7f,3e57555f,3f726494,bf824bee,3f1aadfb,bedfe97b,3f6da018,3f5049f3,bf2be58b,3f7f79b8,3d922592,3f4d8630,bed7a8c0,3a975407,bf359332,bf570462,ba159ebf,3f0c5612,3f40b62e,3f41641a,3eebacfc,be8292cb,bd432d5f,3f405b4b,bf876025,be07c5b1,3f205858,3ebc8ee8,bf30c812,bf615276,bf7d420c,3f10767c,befe56f1,3f49f368,3f3cfa55,bf33f122,3f13626b,bf261858,bde84dc4,3e8ec7cc,3f3702e4,3eb24eca,3f1fc3cc,3f5fbb73,bba16a15,3effc192,3f7a48b9,bf4c48aa,3edd2b46,bf571a43,bf4e7330,3eed758d,3f63be15,3f69f499,3e09bc28,bf3c8b28,bf331a4a,be8ad9b2,3f6547f1,bf6fec3c,3f282737,3e9a8015,beb80035,beb17d7a,bf74886a,bf43d8f5,beabd443,3e42454a,3ea78235,be8b0546,3e764e46,3f0b878d,bf051790,bf7b7e06,3f4afdd1,3ebce704,3d318b73,be78a06c,3d842285,beedc0dc,3f6c0079,beed2386,bf40b29a,3ed69b72,3e50336c,3f35e070,bf51f21f,bf25b0d0,bf1a1cb5,3f029760,bec620e8,bf2cca41,bf50354c,bf5e7eb3,3f494b92,3d98faa0,bebfca2f,bf1abc92,bf66a1c8,3f1cb8fc,3ed04f44,bd673dcc,bf435990,bdc1ad18,bca307a2,beafb85e,becb194d,bea1645f,3e07c0aa,bec99111,3f2c4d78,bf3be039,3ec528b6,3eb8906e,be2709dc,3e0d3981,3e9c7281,3f274cdb,bde5943a,3f12fb7f,3f34b53f,3e3b36dc,bf33cf9e,be1d939c,bf24d4c1,bf58447a,3f223e59,bf2e5cf3,be80c2e4,bee0e74d,be05f02a,becc72ff,bf231075,bf3c5c05,bf26dcbc,bf3595d7,bf0aec80,bec02a36,3ec7193b,3ec47c18,be4ae210,be112d77,3f42d76a,3e61cf12,bf3e5730,3e6dd100,bede96a3,bcca5e89,3f5fe0e3,3e716aa5,bf278af9,3f4365a8,bf30cc0d,3ed8a6b7,3f6c3ae5,3f4ad2a3,bd808f09,3ed9905b,3f14e761,be03f352,be27a3ca,3e61b714,3f366133,3eb6093b,bf00aabd,bf24d4ea,be93a4c0,befbf84b,3f384298,bf0c4e02,3ed3ca9f,3f8385a5,3eab5d91,3f7d402b,3f11b71f,be44d257,3deca93a,3ef0cf79,bea72513,bf204c41,3f113805,3f52a368,be8d25da,bf1f62fd,3eaf7696,3f70e329,bf6b608a,3f61b4d4,bde152fb,be2ef74c,be13b050,3e7c1a5f,bda65e11,3f10ae18,3ea0125a,3eda60fe,3f53c1fd,bebba310,3e252c09,3e9c5b6c,3ed31d8a,3f50b45d,3da8113f,3f31b14f,3ec13cc0,bf34e9fe,bf73b923,bf623fab,3dae6b4c,bd845863,be8b5bc3,bf010447,3f4f4729,bef4d946,3ea1e285,3ebae4d7,befbcbb7,be3eb9ed,3dca5b0d,3f34d8f3,3eaee638,3f859a84,3eb4861e,3f029a48,bdd8774b,3f4b23bd,bee4e8c3,bf238a64,3f81b99f,bede98d5,3e1dc0c5,be942472,3da6c191,bf31078e,3f31de57,3f4554c9,3e15dd84,bf2624da,bea3bd09,3e74b49a,3f70d349,3e72472a,be11f8a9,3ecdf669,3f81c827,bdf32d86,bd6b3827,bead40fc,3e459ad5,3e753b90,be69b81b,beb24dcf,3f77bcb9,3c489cb9,3eb33ed3,3f07b347,3f71a0f3,3f2b7750,3e2cc8e5,3f40271b,3f4ccb00,3f2e8e98,3ead6b62,bea07774,3d858c99,3eb7fb1d,3f3f1e3c,bf3ebc9f,bf6f16ba,be82fb66,3f7b5d3c,3c46d17f,3f1f1d15,3e9b6d98,3f3ff6b1,3f6a20c3,3e92ef8f,3ed4b889,3f1474f7,3f7217b1,3f5b4467,3f6ee877,be3661ca,3f79fed8,3ee195a5,bf33dc44,bec3fb40,3e997ff2,bf9e1111,bf523fa0,beaf51a9,bf6cf86f,3e4d8ae7,be977986,be846d06,3e779df4,3f5975ef,bf21222f,bae52692,bf11b8f5,3f66aff4,3eebde0f,3c3f119d,3f5700a5,bdb7a7d2,3f1def84,bf5dbd0a,bf32abae,bf0a8540,bcb3600f,bf3c3e38,bea72b7f,bd84b587,bf7fbc8d,befd83bc,bf4c2f93,3e91d808,bf895804,3f108a07,3f7d07c7,3f35ad6e,3e3ef4c0,3f39ae32,bcc7e598,3e139889,bda42cb6,bdda48c4,3f1e0b15,bec5d7dc,bd83babc,bf294148,bf4fb741,be8e892c,3d8cf9df,be7e31da,3e3fd8fe,bf9c993b,bef64b56,bf7e96da,bfa38b31,bf382e34,3d77f4d0,bf8692a7,be87ae99,bf6b3e0e,bf7be068,beb65da9,3e21bc1e,3e181249,3dcafd06,bf6950c2,3f5e62e5,bd821052,3eab0d92,bf08db7f,3e9a93f2,3f7b6d0a,bf13f6e0,3f367bd7,3ac24d04,bf849daf,bf8bbb8f,3f13430b,bf7f7385,bf452697,bf3c8c2b,bf4a379f,bf3ae0c7,bf8c465d,be5d78f3,bf0b61b0,3f0c3238,bf4ddd33,bf0d8ccc,bf04c233,3ed5f640,3f4dd3bc,3ea02372,3f546788,3e084970,3f319aa6,3f8a2876,bd6f984b,3f225021,3ea88028,beca4b94,3f457ee2,3f4accaa,3e4a3567,3ea66653,3f0fa8f2,3d62ae77,3f87fc40,3f824b3e,3e8e102f,3e7cfe4f,bdc783a2,beb8520f,3f3d84ae,3f64b224,bed37031,bf36022c,3e8089fc,be8e1907,3f3f4957,3e0b6287,3f6f9914,bf07acb1,be987ab6,3e29eeb5,bc3c8376,3e3cb2d0,3f125c8c,3e4635c5,bee15944,bc578e6b,3f098dde,be9f94fe,3f47d48a,3f95e17e,3f2ecb7e,3f84b043,3fc45ca8,3f9c86ff,3f826f41,3d417cde,3e2f75c8,3f15ae14,becb0fbb,3f35f0f3,3f328887,3e492d51,be2de7aa,3f179292,be864a1c,3e93185d,3ed7f646,bd49ac7d,bf3145d3,3f33bd00,bf7ad0a7,3edf278c,bea3890a,bf52c71c,3a0c559e,bea131ee,3f062929,be96bc2e,bcce7a90,3fa35747,3ef9cae5,3e80a55b,3e1646a4,3ed3fc85,3fa2df55,3f9ba2ee,bf1f97f1,3f13d85f,3ee02a34,bf7c9282,3f516a9b,3f12ee27,bf362406,bda410cd,3f3cd402,be8b51fc,3f2d1ec6,be4d1482,3e1607d2,3f2d0502,bead73f6,bf0f51e0,3ed0aa40,be999b81,bf1f6e1b,bf1f263b,3f724901,3e66c05e,3d8b408d,3f9ab90f,bece0c71,3d64d627,3f8555f8,bf2611fa,be486567,beb7ce29,bf2f301a,bf0292b2,3f617077,bf43d34f,bf3215f9,3f56ac90,3ef1ae1d,3d91c337,be2e06ed,bee165c0,3e0e9c8d,be06a6e8,be72dce9,3dd0680c,3f0a99f5,be2bfccc,3f318ade,be2742be,3e56921d,3ea3783b,3e8c4eee,3ed6e8a3,3d87db1f,3f3eb80e,be90d12c,3f51773f,bd27f987,3f2088d3,bf8079ca,3f4e3680,3df5e74f,3f22c37f,3f2db56a,be743900,be997942,be3c334b,be411e0f,bf2d01e0,be27931f,3f65b631,beb72895,3eb7b419,bf89b0fa,bed3142b,3f550edb,3f48da5c,be997af5,be5bcc7a,3f7703d8,3e2b41b8,3ef5a2a6,bf33fcb9,3f15f49c,3f5dca6f,3f06c3fa,3f7b985f,bf6b2b1a,3e773eb2,bf029d88,be5ec864,beeb19b8,3f43f37e,3cf96c82,3e9aee83,3db7ccba,be6598ae,3ee6a5c2,bf64cf2a,bf7b10e3,3f3075b1,3e9d105f,be85e1af,3edae14f,bf2dfd7f,3ef9629a,bf7652c0,3ea7944b,be726c19,3edd6376,3ecfb26b,beb25ac3,3ec18310,bf16ae07,3f1b1fb7,3f69d83a,bf6f3ddb,3e822050,bea2d17d,bf239a6a,bef4ac5f,bea69943,3eb68aef,be25998a,3ecce7db,bf011b1d,3e0e29c0,3f21e321,3f06ab78,bf3b9925,3e5463cb,3ef1cfcd,3f89054e,3d8eb162,3d5a20cd,3ed359d8,bed475ec,3dfdfe4f,be1d8643,bea88703,bf42e137,3f6c5ef0,bed71098,be932f78,bf7aec4b,bf01e6bd,bf389c49,beb7855c,bf1ac043,be888b9c,bf149e00,3e8d39d0,bf33cb98,3e54b391,3f152466,3f40c38e,bec3c678,3eaa78e3,3f19e276,3dbc8133,beabe96c,3ee036e9,3dc797f3,3e2349de,bf0fef36,3f10dafb,3f210b75,bdffce59,3f5e4e38,3dce48ba,bf0a9bf5,bec1fbb9,bf3da82c,bd1604ce,be4e718a,bf036909,3f00814b,bf604367,3f052301,bcc9e55e,3f53fef7,be8c5dab,3e241b4e,3f83b227,bd7f05b5,bf128668,3f59842b,be2bade0,3ec790f0,3e223805,3f102107,bf984d01,bec86f78,bf17790c,3ed134aa,3f347732,bf6b279a,bf294ffa,bf461149,3f6c9b03,3f6d6488,be8c3693,3f2fd7d5,3f19db73,3f67e6b9,3d921c15,be0dc7c5,3f519139,3f3bc25d,bedf5406,bf4099f7,be24d5f1,3e83dfde,3db61e28,3cbfcac4,3e5de113,bf28a018,3def7327,be34c8cd,bdb76f99,3f74ef1f,bea92fa5,3ef9d280,be2232a3,bf29d8c6,3f69314d,bf59f30c,3e6eed11,3ecb0803,3f7ad532,3eb33f0d,bf380063,3f57cb74,bf5c81a7,3f20bad6,3eb75064,3f5f1ac9,3eb55937,3f702beb,3f54f903,3d8ac3ad,3d8a26fe,3e807bfa,bf07992d,be45e109,3e0b6a1d,3f09ebee,bf389d41,3f0a73f5,bf5172e4,be504ccb,3e4740e5,bdfb4c35,3e444edd,bf0fef0a,3d37ca77,bf25b77d,bed75460,beead5dc,bf1443c7,bf18325a,bd98b524,be7b0b02,3f4453ea,bf06575f,beb86778,3f18b1aa,3e68ea57,3d9b117a,bed10107,be6290ae,bf1931bd,be83c669,bf3bba1d,bd351125,3e851a98,3ee229f1,3ea072ac,beb587e1,bec37965,bf5d97c2,3e7a9803,3e2c1f5b,3ec3e7c3,bebeeb29,3ecb4efc,3ecbe6b1,3f66902b,bf4877d6,bf240253,3f58bfef,be7893c9,bef84448,3f436b91,bde1539b,3dcb9c78,3f1e410f,3e8b47d4,3f0ba2e9,bd6f0eac,3f75855f,bf139990,bf56cc6f,bd79979d,3f13fed1,bf134444,3e718872,bf4b9b88,3f6af60d,bf7ae692,bee11c99,bf479d71,3f686c45,3efa0de0,3eb2cf1e,3c43aac3,bf38da66,bf0ecaf5,3f191593,3f8210ee,bd4d0fd8,bf2c1dd2,3ecfca8f,bccba067,be76ec2c,3e21fdc1,bf08099f,3db939f4,3e30ed2b,bf1f1695,bec4317d,3ed0dbd0,bf459b31,bf68fe37,3f09d0fd,3d4231b1,3f511c70,bf0361e5,be3d8e47,3f7259ba,3f5e0671,bf65ed2a,3f3bc1e0,3e8b1d93,3f237aa1,bf16e06d,be631623,bed192f4,bde9130b,bf20a400,3e93842a,3f6abc0e,beb85736,3e070c4d,3f4696ca,be2cfa5e,3e81ac54,3cc98eba,beaa24be,bf402fb6,be5e1117,3f715906,3f1c0d47,bf114e09,bf762cec,bf50a6a0,bece5190,be9154a0,bea55483,3e4962f2,bf3c4e22,3e88eee3,3f5d7908,bee51260,3ea214c8,3f6351a7,bf608ca9,3f7d83c2,3f21de4c,bf31132e,bf002a8f,be4dc9a2,bf177761,bee2cae0,be93fbfa,3e53c760,3eb3baf1,beb5a37e,beb8f08e,3f1bbbe5,bf21c3cc,3f61fba4,3ec20dbb,bf1a8acb,3e4a1b2e,3e65eaa9,be9c4745,3f3def7d,3cf2c095,3e28af98,bf1b06d9,bf6d2ca3,3f74ca0e,bea138f1,3efe4ab2,3e90be59,bf3ee423,3e9265eb,bf5c5a59,bf4cd925,3f08c89b,3e20e848,3ec79e1d,3e997048,bf5c9301,3e08e3e6,bec958a1,bf0d99f0,be354e2b,3eedf8c2,3e2e7177,bf00978c,3f0b0772,bf2e99e9,bed71236,beac187f,bf1bfea5,3f1726f6,3e562c3f,bf2a19f0,3f371706,bf6627d7,3f4f5166,3f03d3bd,3f7db2d9,bedb267d,bf13d59a,3ed7c1fc,bf609c16,3f788338,3f1edeb5,bf761dad,bf59c348,bf6f6941,bf7b42ae,bf45bb5d,bd92cfe3,bf4f927b,3e2295ef,3f0db8c9,3f4fc340,be8ee329,3e157ffe,be2d92b0,bd9c9b54,bf038195,3f185636,becd3131,bf6c8518,be973130,bf3b4909,bededcc4,3e9fb527,3da24167,bd81235f,3f5785b9,bf26c92a,bdd2431d,ba12c334,bdc12b0d,3f67253f,3f25cb19,3e75d137,bf1dcb10,3f77eecc,bec1f841,bf7c3b6c,be064c45,bf28d830,3e9b27df,bf165a2b,3f3b2023,3f54eae7,bf0b3eaf,bedede35,bdf66c32,bdd592b0,bf3fb24c,bf6641ba,bf4c7d74,bf53f340,3ed52e21,3db23e07,bec4cc6f,3f77033a,3e16cb0b,3f5d0048,bf11489a,3f830bfc,bd16bf15,be8137aa,bdc11681,3f6c0df7,bf26e9f8,bf448f78,3e96d9e7,be3f2ef5,3dad8e22,3d834a4c,bf165e77,bf38a044,bedfe1cb,bef058e0,3f0e905d,be82f8ca,3c9f5e9d,3f0d7b8b,bed277c2,3f167d8a,be5b3374,3f555171,beff4038,bdec9526,3f05fb08,3d3dfd93,