memory_initialization_radix=16;
memory_initialization_vector=bea1ab2a,3ec7fc63,3d69ea14,bf8ca3c1,3e6f3228,3e000f6c,3e3c3024,3ef78323,3e6d7d4c,3f591bad,3f280ef2,3f4e6288,3f7953cf,3f739e31,bf876ffa,bf864c9f,3f37aac8,bfa37671,bf8191e4,be6b34a3,3f2a227b,bf521e1f,bc421051,bfaaf6e6,3f0985f0,bf5914f3,beee2001,bf6b1424,3f09b116,bf9474ae,beb58c17,bf9cf4ac,bf0e2e6c,3e32351d,bede5bfa,bf200b13,bf7f4ee7,bf5893ba,bfb4d4a6,3f80d94a,bf8e1e03,bec27de4,bf05ac07,3f4065d4,3efd0601,be867e16,bf84a3ca,bf1824d8,3e89db84,bf5f8f98,bd8c936c,bf6545a0,3eb253b6,bfcc7ac8,bf5076bc,3e9aa473,3fd555fe,beb215c2,bfbae7bf,bd8ce613,bf00bcb1,bf38c24e,bf9c14bb,3e9b0aa4,3f78abcd,3f81e729,3f83551e,bfa14ed2,3ef32f88,bf69e710,3d9f2ae5,bfab7c74,3f99a22c,3da9664d,3f0dc1fd,3e05d614,be60f204,bf4d2e1b,3f098c36,bf0dbac4,bf9a783e,bf5e80eb,bef30906,be480f35,bf5da57b,bd0de4d1,bfb9fd37,3f023b69,3d910fdb,3f0d8758,3f4d418e,bdaf9f96,bf72e98d,3f040553,3f83ea0c,be5406c4,3f232cdc,3f4e8a60,3e303f38,3e6d232d,bf3e84c9,bf6eb846,3f38fc75,3db3edf3,3deaa748,bf66eba1,bf04953e,bf931b30,be93fac1,3fa4fbf5,bed181f7,3e9abce7,bf2061dc,bf3461ac,bf527f75,bf4cfe41,bf58c858,3f4b7736,3ee1ffd0,3f7f2b12,3f09df2d,bfb73956,be820fed,bdb345c1,bf28c30e,3f53b4e7,bf9bf0f2,bda70913,3f5a67a1,bf209723,3eaeabfc,3e654132,3ee4a7d9,bf0a24e6,3f6b3aa7,3f93eea9,bf122d20,bfa953f6,3f319574,bf50f852,3fbc03bb,befeef64,bfa17ef1,bf29e7db,bf967a8a,3f773d10,be9d2595,bfb2173c,bf343536,be3dfefa,3f51600e,3f2256da,3e89d165,be17d861,3f905347,be5552cb,bfa44d2b,beb4f253,3c1adf19,3fcd0ea0,bf15f5a4,bec07c54,bf0e79fb,3e42c0cf,bf9af916,3f3d34ba,3da40ac6,3f6681bc,3dda3c31,bf170ac8,3f3a0972,bfc5a5c1,bf4044fc,bfee417f,bf98a061,3eeee4b7,bf386e88,3f880460,beb0e8ae,3ed3dcff,be15b8e3,bf9004b1,befefe1d,bf148e33,bea44637,3f39f42f,bfad20c6,bf81e1c7,3e38316c,3f917fce,3f849af4,bedf1d91,bf1246a6,3e5c7b7f,bf8e7660,bf57d113,3ecf2313,bfa0a3e5,3f99eefd,bee5f399,3f21342f,bfaf7fc5,bfb67095,3f71b853,be7ec0c6,bd88df90,3fb434b4,3e9059cb,3fc906d4,be9f2913,3f0e3e38,be71af85,bf13d703,3fbad3f7,bf22bb32,bfa74b52,3f2ae170,bfcf847c,bf8010a2,3c726444,bf2e3146,3daf036f,3ed89be8,bfb5cf8d,beb71888,bf21a765,be207477,beeba4a7,be9e91df,3f0d1e19,3fb253fe,bfb54746,3eb7ca95,bf49198d,bf2dd716,3fb17d38,3d8339d0,bf4b5478,3e8722fc,3f1fc9c9,bf7bf8ac,bf6a6c72,bfb01077,3e49edd6,3f275c0d,bf74712c,3e35da0b,3f5322c1,3f1b17af,3f968efb,3ed389d1,3f50e826,bef73b9b,bdbc1cc3,be638663,3f5d94c7,3f43429f,beafa750,bebb6f0e,bf4b8832,bf8b25b5,bede6b96,bf7029f0,bfd0e5dc,be949dcc,be69585c,3f7f813b,bf693351,bf9cecc9,3eb3f3c7,be557088,be9e14cd,3e8e7442,3ec34784,3f150760,3f316020,bfca11ae,bf5863e3,3f36d836,3fa6f72c,3cf864f0,bf36c584,bfa36d5a,3f006e17,3f2ac07e,3fcb5d12,bf6cd054,bdd28a71,bfc89f00,3d9f208a,bf8cb562,bf85f9bb,3f94ffdb,bd0f64f7,bf3b86c0,bf3ecd5d,3fb1cd9e,beb252ae,3f4f006d,bf923693,3e94fccd,bf01f26b,3f3021ff,bf1ca762,bf59b5ff,3f9daaa6,bea42dfc,bf07282c,bed1e2be,bf0604eb,3f6a6362,3e6df732,bf7f81c8,bfd2aed0,3d1a99e8,bf7a32d4,be85b367,3ecc2692,be469d56,3eeaffa8,bfb3ed2c,bf812b96,3f99aace,bddf34f6,bf97a8ab,3e908614,be9a4969,3e03d55d,bf4e4f6e,3eb1cec2,bf8cfe1c,3e0a6c95,3e93aa0e,c00739e8,3f950f0b,bf2bee09,3d976e22,bf851acc,3f9cc2bf,be83210e,3ea8feb9,bfea5456,be48cfa0,3d902280,bfe526f7,3f0a7968,3eca990f,3edcc8c9,bdc95cc9,be90bb4a,3fc4618a,3e94f1ae,bf0edc50,bf974e17,3e8b1220,bf4ceb73,bfe0111b,3ecd4879,befdcdd9,bd930283,bfb70eb1,3f4bc3aa,3ecf323d,bed53988,3f0546b4,3fcad4a6,3f2b126b,3f90be88,bebe7f80,3e88705e,bedcea7b,3f4a9461,3f486888,3f9a7ee4,3eb80a0d,bf41da15,bfa72630,bd98ada1,3fb25060,bf789e32,be1875f8,bf603de1,3f8a333a,3e8ad0f9,bf0bfa21,bf53ac12,be6285cb,3f52fe55,be105c1b,bf4ce9d5,bfc08972,bf5662ed,bec11f7d,3ec4cd1f,be316b4f,bf89e15b,bf4b9dba,bec6a5c0,bf9c94d8,3e959427,bf9cf507,bf8cb56f,bf84860a,3f6904b2,3f8e4c1b,bdfddc71,bcb649b5,3f498da3,bf91d5e9,3f25ad40,3f234645,3ee6f434,3f376034,3fd41081,3f4a5284,be9c38ba,3e688859,3f282440,bf76b535,3f7d552a,3f259ed5,be5ceea2,bec02781,be586694,3db61fed,bdec2a2e,bf9a084f,3f493247,be301153,3ecfec78,bfad4980,beaa3fe5,bf996ba8,3c1698d6,befa0d10,bf9b832d,bee1cf5b,3f95dc07,3e9fb0dc,3f4273e7,3f67bab0,3f921f0c,bfd9a81f,bf7e126f,be4371ec,bd19de47,3f6fc0f8,bf24aa81,bf76dcc0,3f9aed23,bf4a2ce3,3f87042f,3d649575,3ec9d235,3f194064,bf3b0cd9,3f7a2707,beb39611,bf72643e,bf6a5c3c,bfb8c4e6,bea9b239,bf1edd75,3ea5af4f,bfa54fa7,3e9cae53,be124690,3f5eb0e5,bfa0e9d5,be79d9ed,3f1b906c,bf9dcdc6,3f5f30ef,be89ff1f,bf83a952,3f00c60d,3f6e72c1,bf134e07,3ee95287,3fe236e2,bf2a379f,bf1632c5,3d96d5f7,3f643d53,3f426afc,be0e8494,3e780490,3ef83a5c,3f159402,bf66928a,bf8e3e5c,bf05dffa,bee79a8b,3d08c2c2,3f085e0a,bfce0331,3e687ca3,bea36b91,bf0732f1,bf90e68a,bed77b01,bed6563f,bf24b082,3ec93b2b,3e59e940,bf48ed6c,3fab7826,3fc89fc1,3d986d57,bfe71d0e,bf718942,3e57d664,bf29b600,bddf1cb1,3e50ef99,bf96b5ac,bf4cd3ef,bf33ad36,bf64fa2b,be8d8ef2,3d220374,3fecdd00,bf0e7552,3ea672d6,bfac64a6,bf078c0d,bfcd2551,3f64119a,bec9a330,3d066a4e,bf40befd,bf981484,3e9fbfb6,3f8ae19c,3db830c3,3ee34d32,bf1a7051,3f8f8e76,bfa311d9,3e5993dc,bf99b92a,be8cf3d7,bfb2b8da,bf905741,3ee06ecb,3ecd189b,bf01fe44,bfa9b27e,beb29c91,bf24621b,3ef682c0,3f8f26a0,3f681ee6,3fa8fb4b,be212b1e,3f597939,bf71dabe,bfc8feeb,bfbfcc21,bfc1655d,be29d583,c0197ef1,be70a87d,3f1bb940,3f316aea,bef84cdf,bf819a96,bf015d68,beeaa999,bf9a3638,3f29db49,bebe4f6f,3f7648e0,3f8405ff,bfae3ce4,3f12716b,3f5ccffa,be08a50e,3e945844,3eec9baa,3f637dfc,3fa03f74,bff6b4cf,3e9cdca3,3f7072b7,3f155cf0,3e1a2d2f,3f209558,bf94b050,be5e01d7,3f7b0cbc,bf8078d9,3fd8d01e,bf890f51,bfb04add,bf485195,be2e9161,3f613903,bf89cf75,3f22b672,3ea0a8bd,becebede,bf7a25dd,3f08294a,be4225a2,c01478fe,3f17042c,bfd5dbd0,3f6ba972,3f24fa13,bfa2ef5f,3f8d49cd,3f4d812f,bf323faf,3e2b0cbe,bfa9d9b4,bfa8bab1,3f21f02e,3e7b2d4a,bda4b3a1,3e1e6155,3e28a3eb,be487993,bf8f8601,bfc27931,3f9cec75,bf1ffd47,bf6790fb,bf1d6488,bf73b8e6,3f2ce22b,be0fe114,bf3ebe60,bf53a06f,bf9949c5,3f182df1,bf7a009b,3fcc4924,bf2542c4,bf6aeb3c;