memory_initialization_radix=16;
memory_initialization_vector=be95fec2,beff2303,bf08ad7b,bf71c7c6,3efe1502,3faa8a8c,3dd2fc3a,3dc16cfd,3f1d6b5a,3d4a27c2,3fb0527b,bfb56270,3f4535a7,3f4448e3,bedd3b29,3f38f839,3e5703ab,3f3c4260,bcb8be66,3e759c0f,bfafc0fe,c018d979,3d033b4c,be2e4fc5,beb3ffc3,3f80e7ab,3e6d965b,bf4bf782,3fb200fe,be4cd7b4,3ee0c0b5,bf3f45b7,3e13c905,bf117263,3ea6d2a6,be0cc58b,3d824588,3e8d56f8,3e8ee885,3d248ec8,bee6c56e,3f2847bd,3eedabe8,bd2ca83c,3f1c6fe0,be75a6d1,3ef20dda,3eb01d96,3eebfd47,3f6e64f5,3f5c5ff0,bfb2e53c,be124510,3f063ffd,bf0fa064,bf1a9d64,bf9453e2,bf746c94,3fdb554e,be35219f,bf4ecdac,bfd8f7fc,bea8dee5,befffa3e;